{
  "</s>": 0,
  "<unk>": 1,
  ".": 2,
  ",": 3,
  "\u2581-": 4,
  "?": 5,
  "\u2581the": 6,
  "'": 7,
  "\u2581I": 8,
  "\u2581to": 9,
  "s": 10,
  "\u2581you": 11,
  "\u2581of": 12,
  "\u2581l\u00e0": 13,
  "\u2581a": 14,
  "\u2581kh\u00f4ng": 15,
  "!": 16,
  "\u2581c\u00f3": 17,
  "\u2581and": 18,
  "\u2581t\u00f4i": 19,
  "\u2581c\u1ee7a": 20,
  "\u2581in": 21,
  "\u2581ta": 22,
  "\u2581that": 23,
  "\u2581v\u00e0": 24,
  "\u2581ng\u01b0\u1eddi": 25,
  "\u2581m\u1ed9t": 26,
  "...": 27,
  "t": 28,
  "\u2581\u0111\u00e3": 29,
  "\u2581it": 30,
  "\u2581is": 31,
  "-": 32,
  "\u2581cho": 33,
  "\u2581s\u1ebd": 34,
  "\u2581\u0111\u01b0\u1ee3c": 35,
  "\u2581anh": 36,
  "\u2581ch\u00fang": 37,
  "\u2581\u0111\u00f3": 38,
  "\u2581l\u00e0m": 39,
  "\u2581T\u00f4i": 40,
  "\u2581g\u00ec": 41,
  "\u2581for": 42,
  "\u2581n\u00e0y": 43,
  "\u2581\u0111i": 44,
  "\u2581nh\u1eefng": 45,
  "\u2581trong": 46,
  "\u2581th\u1ec3": 47,
  "\u2581You": 48,
  "\u2581v\u1edbi": 49,
  "\u2581ph\u1ea3i": 50,
  "\u2581me": 51,
  ":": 52,
  "\u2581be": 53,
  "\u2581we": 54,
  "\u2581on": 55,
  "\u2581ra": 56,
  "\u2581n\u00f3i": 57,
  "\u2581\u201c": 58,
  "_": 59,
  "\u2581have": 60,
  "\u2581\u1edf": 61,
  "\u2581this": 62,
  "\u2581was": 63,
  "\u2581not": 64,
  "\u2581c\u00e1c": 65,
  "\u2581s\u1ef1": 66,
  "\u2581with": 67,
  "\u2581bi\u1ebft": 68,
  "\u2581th\u1ebf": 69,
  "\u2581do": 70,
  "\u2581l\u1ea1i": 71,
  "\u2581\u0111\u1ebfn": 72,
  "\u2581r\u1ed3i": 73,
  "\u2581con": 74,
  "\u2581\u0111\u1ec3": 75,
  "\u2581are": 76,
  "\u2581your": 77,
  "m": 78,
  "\u2581nh\u01b0": 79,
  "\u2581n\u00e0o": 80,
  "\u2581he": 81,
  "\u2581m\u00e0": 82,
  "\u2581v\u1ec1": 83,
  "\u2581my": 84,
  "re": 85,
  "\u2581n\u00f3": 86,
  "\u2581Anh": 87,
  "\u2581can": 88,
  "\u2581\u0111\u00e2y": 89,
  "\u2581khi": 90,
  "\u2581sao": 91,
  "\u2581\u201d": 92,
  "\u2581What": 93,
  "\u2581c\u00f4": 94,
  "\u2581\u1ea5y": 95,
  "\u2581h\u1ecd": 96,
  "\u2581It": 97,
  "\u2581his": 98,
  "\u2581The": 99,
  "\u2581Ch\u00faa": 100,
  "\u2581And": 101,
  "\u2581what": 102,
  "\u2581\u00f4ng": 103,
  "\u2581all": 104,
  "\u2581know": 105,
  "\u2581em": 106,
  "\u2581Gi\u00ea": 107,
  "\u2581,": 108,
  "\u2581m\u00ecnh": 109,
  "\u2581th\u1ea5y": 110,
  "\u2581they": 111,
  "\u2581will": 112,
  "\u2581mu\u1ed1n": 113,
  "\u2581\u0111ang": 114,
  "\u2581vi\u1ec7c": 115,
  "\u2581\"": 116,
  "\u2581b\u1ea1n": 117,
  "\u2581th\u00ec": 118,
  "\u2581him": 119,
  "\u2581\u0110\u1ee9c": 120,
  "\u2581c\u0169ng": 121,
  "\u2581\u0111i\u1ec1u": 122,
  "\u2581v\u00e0o": 123,
  "\u2581v\u1eady": 124,
  "\u2581as": 125,
  "\u2581c\u1ea3": 126,
  "\u2581b\u1ecb": 127,
  "\u2581Kh\u00f4ng": 128,
  "\u2581We": 129,
  "\u2581out": 130,
  "\u2581c\u00e1i": 131,
  "\u2581from": 132,
  "\u2581Ch\u00fang": 133,
  "\u2581at": 134,
  "\u2581one": 135,
  "\u2581v\u00ec": 136,
  "\u2581about": 137,
  "\u2581ch\u1ec9": 138,
  ";": 139,
  "\u2581up": 140,
  "\u2581don": 141,
  "\u2581r\u1eb1ng": 142,
  "\u2581God": 143,
  "\u2581an": 144,
  "\u2581like": 145,
  "\u2581them": 146,
  "\u2581just": 147,
  "\u2581He": 148,
  "\u2581\u2014": 149,
  "\u2581there": 150,
  "\u2581here": 151,
  "\u2581t\u1eeb": 152,
  "\u2581so": 153,
  "\u2581\u0111\u00e2u": 154,
  "\u2581c\u00f2n": 155,
  "ll": 156,
  "\u2581c\u1eadu": 157,
  "\u2581ngh\u0129": 158,
  "\u2581tr\u00ean": 159,
  "\u2581gi\u1edd": 160,
  "\u2581V\u00e0": 161,
  "\u2581by": 162,
  "\u2581but": 163,
  "\u2019": 164,
  "\u2581th\u00e0nh": 165,
  "\u2581get": 166,
  "\u25811": 167,
  "\u2581h\u01a1n": 168,
  "\u2581us": 169,
  "\u2581chuy\u1ec7n": 170,
  "\u2581Tr\u1eddi": 171,
  "\u2581C\u00f3": 172,
  "\u2581who": 173,
  "\u2581right": 174,
  "\u2581kh\u00e1c": 175,
  "\u2581nhi\u1ec1u": 176,
  "\u2581tin": 177,
  "\u2581(": 178,
  "\u2581nh\u00e0": 179,
  "\u2581c\u1ea7n": 180,
  "\u2581go": 181,
  "\u2581h\u00f4": 182,
  "\u2581her": 183,
  "\u2581th\u1eadt": 184,
  "\u2581\u0111\u1ea7u": 185,
  "\u2581n\u1eefa": 186,
  "\u2581no": 187,
  "\u2581r\u1ea5t": 188,
  "\u2581n\u00ean": 189,
  "\u2581our": 190,
  "\u2581c\u00f9ng": 191,
  "\u2581c\u00e1ch": 192,
  "\u2581were": 193,
  "\u2581c\u00f4ng": 194,
  ")": 195,
  "\u2581or": 196,
  "\u2581s\u1ed1ng": 197,
  "\u2581nh\u01b0ng": 198,
  "\u2581Nh\u01b0ng": 199,
  "\u2581That": 200,
  "d": 201,
  "\u2581ai": 202,
  "\u2581But": 203,
  "\u2581A": 204,
  "\u2581if": 205,
  "\u2581their": 206,
  "\u2581l\u00ean": 207,
  "\u2581had": 208,
  "\u2581theo": 209,
  "\u2581l\u1eddi": 210,
  "\u2581va": 211,
  "\u2581th\u1ee9": 212,
  "\u2581tr\u01b0\u1edbc": 213,
  "ve": 214,
  "\u2581\u201d.": 215,
  "\u2581Jehovah": 216,
  "\u2581So": 217,
  "\u2581\u0111\u1ea5y": 218,
  "\u2581th\u00f4i": 219,
  "\u2581ng\u00e0y": 220,
  "\u2581time": 221,
  "\u2581C\u00f4": 222,
  "\u2581No": 223,
  "\u2581.": 224,
  "\u2581people": 225,
  "\u2581would": 226,
  "\u2581quan": 227,
  "\u0301": 228,
  "\u2581want": 229,
  "\u2581when": 230,
  "i": 231,
  "\u2581ng\u01b0\u01a1i": 232,
  "\u2581m\u1ecdi": 233,
  "\u2581Ng\u00e0i": 234,
  "\u2581did": 235,
  "\u2581n\u01a1i": 236,
  "\u2581think": 237,
  "\u2581see": 238,
  "\u2581now": 239,
  "\u2581got": 240,
  "\u2581t\u00ecm": 241,
  "\u2581n\u0103m": 242,
  "\u2581nh\u1ea5t": 243,
  "\u2581Yeah": 244,
  "ing": 245,
  "\u2581Oh": 246,
  "\u2581has": 247,
  "\u2581t\u1edbi": 248,
  "\u2581\u00fd": 249,
  "\u2581This": 250,
  "\u2581Em": 251,
  "\u2581nh\u1eadn": 252,
  "\u2581qua": 253,
  "\u2581ch\u1ee9": 254,
  "\u2581s\u1ed1": 255,
  "\u2581hay": 256,
  "\u2581\u0111\u1ed3": 257,
  "\u2581she": 258,
  "\u2581man": 259,
  "\u2581ch\u1ebft": 260,
  "\u2581How": 261,
  "\u2581been": 262,
  "\u2581sau": 263,
  "\u2581They": 264,
  "\u2581h\u1ecdc": 265,
  "\u2581good": 266,
  "\u2581y\u00eau": 267,
  "\u2581gi\u00fap": 268,
  "\u2581xem": 269,
  "n": 270,
  "\u2581said": 271,
  "\u2581ch\u01b0a": 272,
  "\u2581t\u1ea1i": 273,
  "\u2581nghe": 274,
  "\u2581back": 275,
  "\u2581n\u1ebfu": 276,
  "\u2581going": 277,
  "\u2581more": 278,
  "\u2581bao": 279,
  "\u2581\u00d4ng": 280,
  "\u2581t\u1ed1t": 281,
  "\u2581k\u1ebb": 282,
  "\u2581th\u1eddi": 283,
  "\u2581some": 284,
  "\u2581t\u1ef1": 285,
  "\u2581\u01a1n": 286,
  "\u2581way": 287,
  "\u2581N\u1ebfu": 288,
  "\u2581how": 289,
  "\u2581th\u00edch": 290,
  "\u2581need": 291,
  "\u2581b\u1eaft": 292,
  "\u2581ch\u00ednh": 293,
  "\u2581M\u1ed9t": 294,
  "\u2581h\u1eafn": 295,
  "\u2581[": 296,
  "\u2581come": 297,
  "\u2581\u00e0": 298,
  "\u2581m\u1edbi": 299,
  "\u2581nh\u00e2n": 300,
  "\u2581": 301,
  "\u2581qu\u00e1": 302,
  "\u2581b\u1eb1ng": 303,
  "\u2581V\u1eady": 304,
  "\u2581l\u00f2ng": 305,
  "\u2581\u0111\u1ed9ng": 306,
  "\u2581could": 307,
  "\u2581hai": 308,
  "\u2581d\u00e2n": 309,
  "\u2581\u0111\u1ecbnh": 310,
  "\u2581Con": 311,
  "\u2581c\u1ea3m": 312,
  "\u2581h\u1ebft": 313,
  "\u2581tr\u1edf": 314,
  "\u2581N\u00f3": 315,
  "\u2581Well": 316,
  "\u2581\u0103n": 317,
  "\u2581say": 318,
  "\u2581make": 319,
  "\u2581h\u00e3y": 320,
  "\u2581gonna": 321,
  "\u2581gia": 322,
  "\u2581If": 323,
  "\u2581m\u1eb9": 324,
  "\u2581gian": 325,
  "\u2581take": 326,
  "\u2581ng\u00e0i": 327,
  "\u2581Jesus": 328,
  "\u2581l\u1ea5y": 329,
  "\u2581l\u1ed7i": 330,
  "\u2581C\u1eadu": 331,
  "\u2581H\u00e3y": 332,
  "\u2581down": 333,
  "\u2581In": 334,
  "\u2581Kinh": 335,
  "\u0323": 336,
  "y": 337,
  "a": 338,
  "\u2581nay": 339,
  "\u2581hi\u1ec3u": 340,
  "\u2581nhi\u00ean": 341,
  "\u2581Ta": 342,
  "\u2581into": 343,
  "\u2581m\u1eb7t": 344,
  "\u2581Do": 345,
  "\u2581th\u1ef1c": 346,
  "\u2581Why": 347,
  "\u2581tay": 348,
  "\u2581\u0110\u00f3": 349,
  "\u2581kh\u1ecfi": 350,
  "\u2581over": 351,
  ".\"": 352,
  "\u2581life": 353,
  "\u2581should": 354,
  "\u2581h\u1ecfi": 355,
  "\u2581then": 356,
  "\u2581hi\u1ec7n": 357,
  "\u2581may": 358,
  "\u2581Christ": 359,
  "\u2581l\u00fac": 360,
  "\u2581n\u01b0\u1edbc": 361,
  "\u2581\u00d0\u1ee9c": 362,
  "\u2581t\u00ean": 363,
  "\u2581Hey": 364,
  "ed": 365,
  "\u2581which": 366,
  "\u2581these": 367,
  "\u2581She": 368,
  "\u2581\u0111\u1eddi": 369,
  "\u2581cu\u1ed9c": 370,
  "\u2581v\u1eabn": 371,
  "\u2581\u0111\u00fang": 372,
  "ng": 373,
  "\u2581\u0111\u1ec1u": 374,
  "\u2581ch\u1eb3ng": 375,
  "\u2581b\u00e0": 376,
  "\u2581th\u00e1nh": 377,
  "\u2581\u0110\u01b0\u1ee3c": 378,
  "\u2581nhau": 379,
  "\u2581\u0111\u1ec1": 380,
  "\u2581su": 381,
  "\u2581There": 382,
  "\u2581g\u1eb7p": 383,
  "\u2581t\u1ea5t": 384,
  "\u2581g\u1ecdi": 385,
  "\u2581Yes": 386,
  "\u2581b\u1ecf": 387,
  "\u2581than": 388,
  "\u2581h\u00ecnh": 389,
  "\u2581tr\u1ecdng": 390,
  "\u2581those": 391,
  "\u2581shall": 392,
  "\u2581V\u00ec": 393,
  "\u2581l\u00fd": 394,
  "\u2581H\u1ecd": 395,
  "\u2581b\u1ea3o": 396,
  "\u2581day": 397,
  "\u2581only": 398,
  "\u2581h\u1ed9i": 399,
  "]": 400,
  "\u0300": 401,
  "\u2581C\u00e1c": 402,
  "\u2581l\u1ea7n": 403,
  "\u2581ngay": 404,
  "\u2581even": 405,
  "\u2581xin": 406,
  "\u2581h\u00e0nh": 407,
  "\u2581\u0111\u1ed3ng": 408,
  "\u2581l\u1edbn": 409,
  "\u2581Okay": 410,
  "\u2581\u0111\u01b0\u1eddng": 411,
  "\u2581to\u00e0n": 412,
  "\u2581c\u01a1": 413,
  "\u25812": 414,
  "\u2581let": 415,
  "\u2581d\u00f9ng": 416,
  "\u2581t\u00ecnh": 417,
  "\u2581because": 418,
  "\u2581something": 419,
  "\u2581really": 420,
  "\u2581Khi": 421,
  "\u2581Let": 422,
  "\u2581\u0111\u1ea5t": 423,
  "\u2581things": 424,
  "\u2581b\u1ea5t": 425,
  "\u2581t\u00e2m": 426,
  "\u2581ti\u00ean": 427,
  "\u2581th\u01b0\u01a1ng": 428,
  "\u2581very": 429,
  "\"": 430,
  "\u2581t\u1edb": 431,
  "\u2581nh\u00ecn": 432,
  "\u2581Come": 433,
  "\u2581Th\u00e1nh": 434,
  "\u2581h\u1ee3p": 435,
  "\u2581c\u1ea7u": 436,
  "\u2581other": 437,
  "\u2581ti\u1ebfp": 438,
  "\u2581love": 439,
  "\u2581v\u1ee5": 440,
  "\u2581gi\u1ebft": 441,
  "\u2581l\u1ebd": 442,
  "\u2581work": 443,
  "\u2581\u0110\u00e2y": 444,
  "\u2581gi\u1edbi": 445,
  "\u2581too": 446,
  "\u2581help": 447,
  "\u2581c\u1ee9": 448,
  "\u2581Bible": 449,
  "\u2581two": 450,
  "\u2581\u0111\u1ed1i": 451,
  "\u2581m\u1ea5t": 452,
  "\u2581Sao": 453,
  "\u2581ho\u1eb7c": 454,
  "\u2581tell": 455,
  "\u2581didn": 456,
  "\u2581All": 457,
  "\u2581before": 458,
  "\u2581vui": 459,
  "\u2581h\u00e0ng": 460,
  "\u2581k\u1ebft": 461,
  "\u2581first": 462,
  "\u2581any": 463,
  "\u2581where": 464,
  "\u2581never": 465,
  "\u2581sinh": 466,
  "\u2581l\u1eafm": 467,
  "c": 468,
  "\u2581Now": 469,
  "\u2581gi\u1ea3i": 470,
  "\u2581ch\u1eafc": 471,
  "\u2581lu\u00f4n": 472,
  "\u2581\u0111\u01b0a": 473,
  "\u2581Nh\u1eefng": 474,
  "\u2581little": 475,
  "\u2581Ng\u01b0\u1eddi": 476,
  "\u2581c\u00e2u": 477,
  "\u2581much": 478,
  "\u2581off": 479,
  "\u2581world": 480,
  "\u2581years": 481,
  "\u2581b\u00ecnh": 482,
  "\u2581am": 483,
  "\u2581...": 484,
  "\u2581b\u1ea3n": 485,
  "\u2581xu\u1ed1ng": 486,
  "\u2581also": 487,
  "\u2581\u2019": 488,
  "\u2581th\u01b0\u1eddng": 489,
  "\u2581ph\u1ea7n": 490,
  "\u2581ti\u1ec1n": 491,
  "\u2581xe": 492,
  "\u2581m\u00e0y": 493,
  "\u2581look": 494,
  "\u2581Don": 495,
  "\u2581ti\u1ebfng": 496,
  "\u2581My": 497,
  "\u2581ch\u1ee9ng": 498,
  "\u2581doing": 499,
  "\u2581cha": 500,
  "\u2581find": 501,
  "\u2581c\u1ed1": 502,
  "\u2581thing": 503,
  "\u2581made": 504,
  "\u2581x\u1ea3y": 505,
  "\u2581give": 506,
  "\u2581thay": 507,
  "\u2581c\u1ee9u": 508,
  "\u2581Xin": 509,
  "\u2581th\u00f4ng": 510,
  "va": 511,
  "\u2581v\u1ecb": 512,
  "\u2581t\u00ednh": 513,
  "\u2581t\u1eebng": 514,
  "\u2581b\u1edfi": 515,
  "\u2581b\u1ed1": 516,
  "\u2581For": 517,
  "\u2581L\u00e0m": 518,
  "\u2581v\u1eadt": 519,
  "\u2581\u0110\u1eebng": 520,
  "\u2581gi\u1eef": 521,
  "\u2581v\u1ea5n": 522,
  "\u2581b\u00ean": 523,
  "\u2581t\u1ed9i": 524,
  "\u2581b\u1ed9": 525,
  "\u2581T\u1ea1i": 526,
  "\u2581ngo\u00e0i": 527,
  "\u2581nh\u1edb": 528,
  "\u2581ch\u1ecb": 529,
  "\u2581mean": 530,
  "\u2581ngh\u0129a": 531,
  "\u2581\u0111\u1ed5i": 532,
  "\u2581g\u00e1i": 533,
  "\u2581Ph\u1ea3i": 534,
  "\u2581When": 535,
  "\u2581Th\u1eadt": 536,
  "\u2581tr\u1ea3": 537,
  "\u2581many": 538,
  "\u2581trai": 539,
  "\u2581s\u00e1ng": 540,
  "\u2581C\u00e1i": 541,
  "\u2581gi\u1ed1ng": 542,
  "\u2581why": 543,
  "\u2581name": 544,
  "\u2581v\u00f4": 545,
  "\u2581must": 546,
  "\u2581d\u1ee5ng": 547,
  "\u2581t\u01b0\u1edfng": 548,
  "\u2581gi\u00e1o": 549,
  "\u2581does": 550,
  "\u2581ch\u00e1u": 551,
  "\u2581Trong": 552,
  "\u2581b\u00e1o": 553,
  "\u2581family": 554,
  "\u2581\u0111\u00e1ng": 555,
  "\u2581n\u0103ng": 556,
  "\u2581tr\u1ebb": 557,
  "\u2581b\u00e9": 558,
  "\u2581well": 559,
  "\u2581th\u1ea7n": 560,
  "\u2581m\u00e1y": 561,
  "\u2581trung": 562,
  "\u2581chi\u1ebfn": 563,
  "\u2581away": 564,
  "\u2581\u1ea3nh": 565,
  "\u2581tr\u01b0\u1eddng": 566,
  "\u2581s\u00e1t": 567,
  "\u2581;": 568,
  "\u2581Y": 569,
  "\u2581after": 570,
  "\u2581still": 571,
  "\u2581ph\u00f2ng": 572,
  "\u2581bi\u1ec7t": 573,
  "\u2581s\u0129": 574,
  "\u2581\u0111\u00e1nh": 575,
  "u": 576,
  "\u2581vi\u00ean": 577,
  "\u2581put": 578,
  "\u2581c\u1ea3nh": 579,
  "\u2581v\u00e0i": 580,
  "\u2581men": 581,
  "\u2581quy\u1ec1n": 582,
  "\u2581quy\u1ebft": 583,
  "\u2581again": 584,
  "\u2581s\u00e1ch": 585,
  "er": 586,
  "\u2581'": 587,
  "\u2581d\u1eabn": 588,
  "\u2581g\u1ea7n": 589,
  "\u2581came": 590,
  "\u2581\u0111\u1ea1o": 591,
  "\u2581ph\u00e1t": 592,
  "\u2581ho\u00e0n": 593,
  "\u2581\u0110\u1ec3": 594,
  "\u2581h\u1ea3": 595,
  "I": 596,
  "\u2581tao": 597,
  "\u2581ch\u1ecdn": 598,
  "\u2581t\u00edn": 599,
  "\u2581ch\u00fat": 600,
  "\u2581th\u1ee9c": 601,
  "\u2581kia": 602,
  "\u2581t\u1ea1o": 603,
  "\u2581th\u00eam": 604,
  "\u2581nh\u00e9": 605,
  "\u2581\u0111i\u1ec3m": 606,
  "ly": 607,
  "\u2581great": 608,
  "\u2581s\u1ee3": 609,
  "\u2581t\u1ebf": 610,
  "\u2581Where": 611,
  "\u2581through": 612,
  "\u2581tr\u1eddi": 613,
  "\u2581ban": 614,
  "\u2581ch\u1ed7": 615,
  "\u2581?": 616,
  "\u2581\u0111\u00ecnh": 617,
  "\u2581Just": 618,
  "\u2581being": 619,
  "\u2581long": 620,
  "\u2581\u0110\u00fang": 621,
  "\u2581place": 622,
  "\u2581\u0110i": 623,
  "\u2581vua": 624,
  "\u2581okay": 625,
  "\u2581B\u1ea1n": 626,
  "\u2581th\u00e2n": 627,
  "\u2581\u00ca": 628,
  "\u2581tr\u1ecb": 629,
  "\u2581\u2018": 630,
  "\u2581lo\u1ea1i": 631,
  "\u2581own": 632,
  "\u2581nh\u1ecf": 633,
  "\u2581Th\u1ebf": 634,
  "\u2581x\u00e1c": 635,
  "\u2581such": 636,
  "\u2581ch\u01a1i": 637,
  "\u2581sai": 638,
  "\u2581b\u1ecdn": 639,
  "\u2581cao": 640,
  "\u2581Ch\u1ec9": 641,
  "\u2581li\u00ean": 642,
  "\u2581new": 643,
  "\u2581\u0111\u1eb7t": 644,
  "\u2581Are": 645,
  "\u2581lo": 646,
  "\u2581son": 647,
  "\u2581Can": 648,
  "\u2581m\u1ea1nh": 649,
  "\u2581r\u00f5": 650,
  "\u2581ba": 651,
  "\u2581ch\u1ecbu": 652,
  "\u2581home": 653,
  "\u2581Who": 654,
  "\u2581Then": 655,
  "\u2581c\u1eeda": 656,
  "\u2581gi\u00e1": 657,
  "\u2581Your": 658,
  "\u2581house": 659,
  "\u2581\u0110\u1ea5ng": 660,
  "\u2581tr\u00ecnh": 661,
  "\u2581kh\u00f3": 662,
  "\u2581trang": 663,
  "\u2581ch\u00fa": 664,
  "\u2581told": 665,
  "\u2581l\u00e2u": 666,
  "\u2581every": 667,
  "\u2581mang": 668,
  "\u2581th\u01b0": 669,
  "\u2581lo\u00e0i": 670,
  "\u2581t\u1eadp": 671,
  "\u2581\u266a": 672,
  "\u2581h\u1ec7": 673,
  "\u2581l\u1ef1c": 674,
  "\u2581\u0111\u1ed9": 675,
  "\u2581vi\u1ebft": 676,
  "\u2581\u0111\u1ea1i": 677,
  "\u2581ph\u1ee5": 678,
  "\u2581\u0110i\u1ec1u": 679,
  "\u2581V\u00e2ng": 680,
  "\u2581children": 681,
  "\u2581C\u00f2n": 682,
  "\u2581\u0111\u1eb9p": 683,
  "\u2581d\u1ea1y": 684,
  "\u2581qu\u1ea3": 685,
  "\u2581Get": 686,
  "\u2581b\u1ec7nh": 687,
  "\u2581tr\u01b0\u1edfng": 688,
  "\u2581keep": 689,
  "\u2581cu\u1ed1i": 690,
  "ra": 691,
  "\u0309": 692,
  "\u2581Not": 693,
  "\u2581might": 694,
  "\u2581khi\u1ebfn": 695,
  "\u2581Mr": 696,
  "\u2581thought": 697,
  "\u2581v\u1ecdng": 698,
  "\u2581t\u1ed1i": 699,
  "\u2581Cha": 700,
  "\u2581M\u1eb9": 701,
  "\u2581!": 702,
  "\u2581sure": 703,
  "--": 704,
  "\u2581sorry": 705,
  "\u2581tuy\u1ec7t": 706,
  "\u2581\u0111\u1ee7": 707,
  "\u2581v\u1eeba": 708,
  "\u2581call": 709,
  "\u2581b\u00e0i": 710,
  "\u2581father": 711,
  "\u2581another": 712,
  "\u2581xa": 713,
  "\u2581Thank": 714,
  "\u25813": 715,
  "\u2581H\u1eafn": 716,
  "\u2581d\u01b0\u1edbi": 717,
  "\u2581around": 718,
  "\u2581last": 719,
  "\u2581anything": 720,
  "\u2581m\u1ea5y": 721,
  "\u2581\u0111\u1eebng": 722,
  "\u2581s\u1ee9c": 723,
  "\u2581better": 724,
  "\u2581Look": 725,
  "\u2581talk": 726,
  "\u2581tr\u00e1i": 727,
  "\u2581done": 728,
  "\u2581l\u1eadp": 729,
  "\u2581T\u1edb": 730,
  "\u2581quay": 731,
  "\u2581n\u1eef": 732,
  "\u2581\u01a1i": 733,
  "\u2581To": 734,
  "\u2581v\u1ebb": 735,
  "\u2581As": 736,
  "\u2581t\u1ee5c": 737,
  "\u2581l\u00f4": 738,
  "\u2581l\u1ec5": 739,
  "\u2581:": 740,
  "\u2581ph\u1ee5c": 741,
  "\u2581ever": 742,
  "\u2581thi\u1ebft": 743,
  "\u2581m\u1eebng": 744,
  "\u2581found": 745,
  "\u2581Sau": 746,
  "\u2581Ai": 747,
  "\u2581night": 748,
  "\u2581gi\u1eefa": 749,
  "\u2581t\u01b0\u1ee3ng": 750,
  "\u2581m\u1ed7i": 751,
  "\u2581chi": 752,
  "\u2581same": 753,
  "\u2581v\u1ee3": 754,
  "\u2581ch\u1ee7": 755,
  "\u2581ph\u00e1n": 756,
  "\u2581always": 757,
  "\u2581ph\u00e9p": 758,
  "\u2581b\u00e2y": 759,
  "\u2581danh": 760,
  "\u2581tu\u1ed5i": 761,
  "e": 762,
  "\u2581\u0111\u1eb7c": 763,
  "\u2581ch\u1ee9c": 764,
  "\u2581\u0111\u1ea7y": 765,
  "\u2581old": 766,
  "\u2581x\u00e9t": 767,
  "\u2581th\u1edd": 768,
  "\u2581k\u1ef3": 769,
  "\u2581th\u1ed1ng": 770,
  "\u2581went": 771,
  "\u2581N\u00e0y": 772,
  "\u2581m\u1eaft": 773,
  "\u2581k\u1ec3": 774,
  "\u2581unto": 775,
  "\u2581--": 776,
  "\u2581three": 777,
  "\u2581thi\u00ean": 778,
  "\u2581feel": 779,
  "\u2581\u1ed5n": 780,
  "\u2581T\u1ea5t": 781,
  "\u2581course": 782,
  "\u2581kinh": 783,
  "\u2581t\u00e0i": 784,
  "\u2581s\u1eed": 785,
  "\u2581says": 786,
  "\u2581th\u01b0a": 787,
  "\u2581left": 788,
  "\u2581Nh\u00e2n": 789,
  "S": 790,
  "\u2581m\u1ee5c": 791,
  "\u2581Ch\u00e0o": 792,
  "\u2581against": 793,
  "\u2581th\u1eed": 794,
  "\u2581tra": 795,
  "\u2581kind": 796,
  "o": 797,
  "\u2581heart": 798,
  "\u2581won": 799,
  "\u2581ti\u00eau": 800,
  "\u2581ph\u1ea1m": 801,
  "\u2581hand": 802,
  "\u2581%": 803,
  "\u2581nothing": 804,
  "\u2581ph\u00e1p": 805,
  "\u2581today": 806,
  "\u2581Paul": 807,
  "\u2581Sa": 808,
  "\u2581tr\u00ed": 809,
  "\u2581\u0111\u1ee9c": 810,
  "\u2581\u0111\u1ee9a": 811,
  "\u2581chuy\u1ec3n": 812,
  "\u2581t\u1eed": 813,
  "\u2581earth": 814,
  "\u2581Good": 815,
  "\u2581its": 816,
  "\u2581most": 817,
  "\u2581believe": 818,
  "\u2581One": 819,
  "\u2581Israel": 820,
  "\u2581Go": 821,
  "\u2581B\u00e0": 822,
  "\u2581ch\u1ea1y": 823,
  "\u2581qu\u00e2n": 824,
  "\u2581thu\u1ed9c": 825,
  "\u2581use": 826,
  "\u2581truy\u1ec1n": 827,
  "\u2581dead": 828,
  "\u2581gi\u1ea3": 829,
  "\u2581C\u1ea3m": 830,
  "\u2581lu\u1eadt": 831,
  "\u2581t\u1ee9c": 832,
  "\u2581\u0111i\u1ec7n": 833,
  "\u201c": 834,
  "\u2581money": 835,
  "\u2581Gi\u1edd": 836,
  "\u2581John": 837,
  "\u2581\u0111\u00e0n": 838,
  "\u2581\u0111au": 839,
  "\u2581called": 840,
  "\u2581th\u00e1ng": 841,
  "\u2581days": 842,
  "\u2581s\u01a1": 843,
  "\u2581s\u1eafp": 844,
  "\u2581c\u00e2y": 845,
  "in": 846,
  "\u2581ch\u1eafn": 847,
  "\u2581\u0111\u1ecba": 848,
  "\u2581Cho": 849,
  "\u2581d\u00f9": 850,
  "\u2581li\u1ec7u": 851,
  "\u2581t\u01b0\u01a1ng": 852,
  "\u2581h\u01b0\u1edbng": 853,
  "\u2581saying": 854,
  "\u2581please": 855,
  "\u2581th\u1eb1ng": 856,
  "\u2581t\u01b0": 857,
  "\u2581b": 858,
  "\u2581M\u00e0y": 859,
  "h\u00f4": 860,
  "\u2581bi\u1ebfn": 861,
  "\u2581lot": 862,
  "\u2581nguy\u1ec7n": 863,
  "\u2581ch\u00ed": 864,
  "\u2581\u0111\u1ee9ng": 865,
  "\u2581nhi\u1ec7m": 866,
  "\u2581c\u00e1nh": 867,
  "\u2581\u00edt": 868,
  "\u2581understand": 869,
  "\u2581ma": 870,
  "\u2581ki\u1ebfm": 871,
  "\u2581guy": 872,
  "\u2581C": 873,
  "\u2581show": 874,
  "\u2581kill": 875,
  "\u2581Please": 876,
  "\u2581t\u00f4n": 877,
  "\u2581Ma": 878,
  "\u2581nhanh": 879,
  "\u2581hear": 880,
  "\u2581m\u1edf": 881,
  "\u2581doesn": 882,
  "p": 883,
  "\u2581coming": 884,
  "\u2581sir": 885,
  "\u2581took": 886,
  "\u258110": 887,
  "\u2581k\u1ebf": 888,
  "\u2581v\u1ec7": 889,
  "\u2581bu\u1ed5i": 890,
  "\u2581\u0111\u1ecdc": 891,
  "\u2581tham": 892,
  "\u2581thu\u1eadt": 893,
  "\u2581c\u1ed5": 894,
  "\u2581giao": 895,
  "\u2581d\u1ec5": 896,
  "\u2581end": 897,
  "\u2581c\u1ea5p": 898,
  "\u2581ph\u00eda": 899,
  "\u2581nghi\u1ec7m": 900,
  "\u2581g\u00e2y": 901,
  "\u2581h\u00f4n": 902,
  "\u2581death": 903,
  "\u2581xu\u1ea5t": 904,
  "\u2581th\u00fa": 905,
  "\u2581together": 906,
  "\u2581\u1eea": 907,
  "\u2581hi\u1ec7u": 908,
  "\u2581bay": 909,
  "\u2581s\u1eb5n": 910,
  "\u2581B": 911,
  "\u2581wrong": 912,
  "\u2581ng\u1ee7": 913,
  "\u2581Tuy": 914,
  "\u2581L\u00e0": 915,
  "\u2581d\u1ef1": 916,
  "\u2581chi\u1ebfc": 917,
  "\u2581everything": 918,
  "\u2581king": 919,
  "\u2581saw": 920,
  "\u2581true": 921,
  "\u2581n\u1ed5i": 922,
  "\u2581t\u00e1c": 923,
  "\u2581tinh": 924,
  "\u2581gi\u1ea3ng": 925,
  "\u2581happened": 926,
  "\u2581tranh": 927,
  "\u2581leave": 928,
  "\u2581Because": 929,
  "\u2581ch\u00e2n": 930,
  "\u25815": 931,
  "\u2581Nh\u01b0": 932,
  "\u2581di\u1ec5n": 933,
  "\u2581live": 934,
  "\u2581b\u00e0n": 935,
  "\u2581part": 936,
  "\u2581Did": 937,
  "\u2581minh": 938,
  "\u2581bad": 939,
  "\u2581\u0111\u00eam": 940,
  "\u2581&": 941,
  "\u2581c\u00e1": 942,
  "\u2581linh": 943,
  "\u2581wanted": 944,
  "\u2581S\u1ef1": 945,
  "\u2581stop": 946,
  "\u00ean": 947,
  "\u2581mind": 948,
  "\u2581\u1ee9ng": 949,
  "\u2581Ba": 950,
  "\u2581m\u1ea1ng": 951,
  "\u2581used": 952,
  "\u2581h\u01b0\u1edfng": 953,
  "\u2581someone": 954,
  "\u2581M\u1ecdi": 955,
  "\u2581\u1ede": 956,
  "\u2581l\u1ee3i": 957,
  "\u2581ko": 958,
  "\u2581tr\u00f2": 959,
  "\u2581ph\u01b0\u01a1ng": 960,
  "\u2581without": 961,
  "\u2581suy": 962,
  "\u2581guys": 963,
  "\u2581Phao": 964,
  "\u2581\u0111\u1ea5ng": 965,
  "\u2581year": 966,
  "\u2581ki\u1ec3m": 967,
  "\u2581kh\u00ed": 968,
  "\u2581wife": 969,
  "\u2581care": 970,
  "\u2581word": 971,
  "\u2581h\u00f4m": 972,
  "\u2581B\u1ed1": 973,
  "\u2581Ch\u1eafc": 974,
  "\u2581s\u01b0": 975,
  "\u2581l\u1ea1c": 976,
  "\u2581\u0111\u01a1n": 977,
  "\u2581ti\u1ebfn": 978,
  "\u2581R\u1ed3i": 979,
  "the": 980,
  "\u2581u\u1ed1ng": 981,
  "\u2581ng\u1ed3i": 982,
  "\u2581under": 983,
  "\u2581\u0111em": 984,
  "\u2581enough": 985,
  "\u2581Here": 986,
  "\u2581Phi": 987,
  "\u2581t\u1ecf": 988,
  "\u2581ask": 989,
  "\u2581\u00ean": 990,
  "\u2581ph\u00e1": 991,
  "\u2581fine": 992,
  "\u2581New": 993,
  "\u2581n\u1ea7y": 994,
  "\u2581m\u00f4n": 995,
  "\u2581each": 996,
  "\u2581Yahweh": 997,
  "\u2581times": 998,
  "\u2581x\u1eed": 999,
  "\u2581heard": 1000,
  "\u2581words": 1001,
  "\u2581\u00dd": 1002,
  "\u2581ch\u1edd": 1003,
  "\u2581person": 1004,
  "\u2581s\u1ee9": 1005,
  "\u2581\u00edch": 1006,
  "\u2581real": 1007,
  "\u2581Witnesses": 1008,
  "\u2581th\u1ecb": 1009,
  "\u2581upon": 1010,
  "\u2581ch\u1ea5t": 1011,
  "\u2581Tao": 1012,
  "\u2581\u0111\u1ed9i": 1013,
  "\u2581yourself": 1014,
  "\u2581\u00e1c": 1015,
  "\u2581others": 1016,
  "\u2581ph\u1ea3n": 1017,
  "\u2581Nghe": 1018,
  "\u2581mother": 1019,
  "\u2581m\u00f4": 1020,
  "\u258115": 1021,
  "\u2581N\u00f3i": 1022,
  "\u2581S": 1023,
  "\u2581s\u00e0ng": 1024,
  "\u2581LORD": 1025,
  "\u2581N\u01b0\u1edbc": 1026,
  "\u2581t\u1ed5": 1027,
  "\u2581nguy\u00ean": 1028,
  "\u2581else": 1029,
  "\u2581set": 1030,
  "\u2581yet": 1031,
  "\u2581big": 1032,
  "\u2581c\u00e0ng": 1033,
  "\u2581bring": 1034,
  "\u2581next": 1035,
  "\u2581th\u00fac": 1036,
  "\u2581nh\u00f3m": 1037,
  "\u2581T": 1038,
  "\u2581head": 1039,
  "\u2581Chuy\u1ec7n": 1040,
  "\u2581hy": 1041,
  "\u2581David": 1042,
  "\u2581b\u00e1c": 1043,
  "\u2581means": 1044,
  "\u2581actually": 1045,
  "\u2581d\u1ecbch": 1046,
  "\u2581Christian": 1047,
  "\u2581looking": 1048,
  "\u2581l\u01b0\u1ee3ng": 1049,
  "\u2581x\u1ee9": 1050,
  "\u2581\u0111\u1ee3i": 1051,
  "\u2581woman": 1052,
  "\u2581ghi": 1053,
  "\u2581best": 1054,
  "\u2581tr\u00f4ng": 1055,
  "\u2581kho\u1ea3ng": 1056,
  "\u2581seen": 1057,
  "\u2581ph\u1ed1": 1058,
  "\u2581duy": 1059,
  "\u2581\u00d4i": 1060,
  "\u2581both": 1061,
  "\u2581ch\u1ed3ng": 1062,
  "\u2581become": 1063,
  "\u2581ph\u00e2n": 1064,
  "\u2581girl": 1065,
  "\u2581h\u00f3a": 1066,
  "r": 1067,
  "\u2581m\u1eb7c": 1068,
  "\u2581whole": 1069,
  "\u2581tri": 1070,
  "\u2581thu\u1ed1c": 1071,
  "\u2581l\u1ea1": 1072,
  "\u2581h\u1ea1n": 1073,
  "Gi\u00ea": 1074,
  "\u2581\u1ea1": 1075,
  "\u2581/": 1076,
  "\u2581face": 1077,
  "\u2581h\u1ee9a": 1078,
  "\u2581spirit": 1079,
  "\u2581land": 1080,
  "Ch\u00faa": 1081,
  "\u2581B\u00e2y": 1082,
  "\u2581th\u1ea7y": 1083,
  "\u2581qu\u00fd": 1084,
  "\u25814": 1085,
  "\u2581kh\u1ea3": 1086,
  "\u2581remember": 1087,
  "\u2581talking": 1088,
  "\u2581g\u1eafng": 1089,
  "\u2581v\u0103n": 1090,
  "A": 1091,
  "th": 1092,
  "\u2581l\u1ec7": 1093,
  "\u2581nh\u1ec9": 1094,
  "\u258120": 1095,
  "\u2581gave": 1096,
  "\u2581city": 1097,
  "\u2581mua": 1098,
  "E": 1099,
  "\u2581b\u1eafn": 1100,
  "\u2581while": 1101,
  "\u2581die": 1102,
  "\u2581x\u1ea5u": 1103,
  "\u2581brother": 1104,
  "\u2581faith": 1105,
  "\u2581rao": 1106,
  "\u2581h\u1ea7u": 1107,
  "\u2581h\u1ea1nh": 1108,
  "\u2581h\u1ea1i": 1109,
  "\u2581D\u00f9": 1110,
  "\u2581Th\u00f4i": 1111,
  "\u2581lu\u1eadn": 1112,
  "\u2581trying": 1113,
  "\u2581hope": 1114,
  "\u2581hell": 1115,
  "\u2581ri\u00eang": 1116,
  "\u2581friend": 1117,
  "\u2581getting": 1118,
  "\u2581already": 1119,
  "\u2581tu\u1ea7n": 1120,
  "\u2581\u0111\u1ee1": 1121,
  "\u2581truth": 1122,
  "al": 1123,
  "\u2581thanh": 1124,
  "\u2581\u0111\u1ea5u": 1125,
  "\u2581page": 1126,
  "\u2581few": 1127,
  "\u2581k\u00ednh": 1128,
  "\u2581k\u1ef7": 1129,
  "\u2581kh\u00e1ch": 1130,
  "ta": 1131,
  "\u2581\u0111o\u00e1n": 1132,
  "\u2581water": 1133,
  "\u2581himself": 1134,
  "\u2581Ch\u00e1u": 1135,
  "\u2581v\u00f2ng": 1136,
  "\u2581y": 1137,
  "\u2581stay": 1138,
  "\u2581move": 1139,
  "\u2581ch\u00e0o": 1140,
  "\u2581kh\u00f4n": 1141,
  "\u2581*": 1142,
  "\u2581young": 1143,
  "\u2581d\u00e0i": 1144,
  "\u2581knew": 1145,
  "\u2581ho\u1ea1t": 1146,
  "\u2581d\u1ea5u": 1147,
  "\u2581Of": 1148,
  "\u2581chu\u1ea9n": 1149,
  "\u2581fucking": 1150,
  "\u2581\u00e1o": 1151,
  "\u2581nghi\u1ec7p": 1152,
  "\u2581kh\u00e1": 1153,
  "\u2581Lord": 1154,
  "\u2581until": 1155,
  "\u2581try": 1156,
  "\u2581ph\u00fat": 1157,
  "\u2581n\u1ea1n": 1158,
  "\u2581wait": 1159,
  "\u2581example": 1160,
  "\u2581bi\u1ec3u": 1161,
  "\u2581\u0111\u00f3ng": 1162,
  "\u2581Kingdom": 1163,
  "\u2581O": 1164,
  "\u2581hard": 1165,
  "\u2581l\u00e0nh": 1166,
  "\u2581eyes": 1167,
  "\u2581chung": 1168,
  "\u2581v\u0169": 1169,
  "\u2581C\u00e1m": 1170,
  "\u2581matter": 1171,
  "\u2581hi\u1ec3m": 1172,
  "\u2581Maybe": 1173,
  "\u2581Christians": 1174,
  "\u2581d\u00e0nh": 1175,
  "\u2581car": 1176,
  "\u2581Uh": 1177,
  "\u2581different": 1178,
  "em": 1179,
  "\u2581At": 1180,
  "\u2581Right": 1181,
  "\u2581ca": 1182,
  "s\u01a1": 1183,
  "\u2581Ch\u1ecb": 1184,
  "\u2581thi": 1185,
  "\u2581job": 1186,
  "\u2581human": 1187,
  "\u2581\u0111\u00f4": 1188,
  "\u2581shit": 1189,
  "\u2581qu\u00ean": 1190,
  "\u2581isn": 1191,
  "\u2581\u0111\u00f4i": 1192,
  "\u2581Ch\u1eb3ng": 1193,
  "l": 1194,
  "\u2581m\u00e1u": 1195,
  "\u2581power": 1196,
  "\u2581nh\u1edd": 1197,
  "\u2581b\u01b0\u1edbc": 1198,
  "\u2581s\u00fang": 1199,
  "\u2581\u0111i\u00ean": 1200,
  "\u2581open": 1201,
  "\u2581xong": 1202,
  "\u2581killed": 1203,
  "\u2581ones": 1204,
  "?\"": 1205,
  "\u2581sa": 1206,
  "\u2581B\u1ecdn": 1207,
  "\u2581vi": 1208,
  "\u2581close": 1209,
  "\u2581idea": 1210,
  "\u2581tr\u00e1ch": 1211,
  "\u2581h\u01a1i": 1212,
  "\u2581e": 1213,
  "\u2581uh": 1214,
  "\u2581important": 1215,
  "\u2581\u0111\u00e1": 1216,
  "\u2581chia": 1217,
  "\u2581quanh": 1218,
  "\u2581\u00e1n": 1219,
  "\u2581ago": 1220,
  "\u2581y\u1ebfu": 1221,
  "\u2581y\u00ean": 1222,
  "\u25816": 1223,
  "\u2581Ch\u1ee9ng": 1224,
  "\u2581thi\u00eang": 1225,
  "\u2581khuy\u00ean": 1226,
  "\u2581start": 1227,
  "\u2581s\u1ea3n": 1228,
  "\u2581problem": 1229,
  "\u2581L\u1eddi": 1230,
  "\u2581x\u00e2y": 1231,
  "\u2581b\u00e1n": 1232,
  "\u2581Ng\u01b0\u01a1i": 1233,
  "\u2581Gi\u00f4": 1234,
  "\u2581ngoan": 1235,
  "\u2581th\u1ee7": 1236,
  "\u2581di": 1237,
  "\u2581nhi\u00eau": 1238,
  "\u2581qu\u1ed1c": 1239,
  "\u2581His": 1240,
  "\u2581th\u00f9": 1241,
  "\u2581C\u00f4ng": 1242,
  "\u2581brought": 1243,
  "\u2581Hello": 1244,
  "\u2581Nh\u00ecn": 1245,
  "\u2581blood": 1246,
  "\u2581tho\u1ea1i": 1247,
  "es": 1248,
  "\u2581t\u00f4": 1249,
  "\u2581c\u1ee9ng": 1250,
  "\u2581li\u00eang": 1251,
  "\u2581boy": 1252,
  "\u2581far": 1253,
  "\u0303": 1254,
  "\u2581able": 1255,
  "\u2581m\u00e0u": 1256,
  "\u2581h\u1ec1": 1257,
  "\u2581number": 1258,
  "\u2581between": 1259,
  "\u2581tho\u00e1t": 1260,
  "\u2581Wait": 1261,
  "\u2581ch\u1ed1ng": 1262,
  "\u2581th\u1eafng": 1263,
  "\u2581thou": 1264,
  "\u2581B\u1edfi": 1265,
  "h": 1266,
  "\u2581yeah": 1267,
  "\u2581m\u1eadt": 1268,
  "\u2581t\u1ec7": 1269,
  "\u2581Or": 1270,
  "\u2581ch\u1ea5p": 1271,
  "\u2581tan": 1272,
  "\u2581t\u00e0u": 1273,
  "\u2581Ng\u00e0y": 1274,
  "\u2581m\u1ed1i": 1275,
  "\u2581room": 1276,
  "\u2581khu": 1277,
  "\u258130": 1278,
  "\u2581Peter": 1279,
  "\u2581d\u1ed1i": 1280,
  "C": 1281,
  "\u2581though": 1282,
  "\u2581Take": 1283,
  "\u2581read": 1284,
  "\u2581book": 1285,
  "\u2581\u0111\u00f4ng": 1286,
  "\u2581run": 1287,
  "\u2581di\u1ec7n": 1288,
  "\u2581having": 1289,
  "\u2581\u201d,": 1290,
  "\u2581T\u1ed1t": 1291,
  "\u2581\u0111\u1ed9c": 1292,
  "\u2581l\u1ecbch": 1293,
  "\u2581turn": 1294,
  "\u2581n\u1eb1m": 1295,
  "\u2581\u0111\u00e1p": 1296,
  "\u2581h\u1ea1": 1297,
  "\u2581coi": 1298,
  "\u2581h\u1ee7y": 1299,
  "\u2581ngo\u1ea1i": 1300,
  "\u2581c\u00e1o": 1301,
  "\u2581v\u1eddi": 1302,
  "\u2581h\u1ed9": 1303,
  "\u2581t\u00f9": 1304,
  "\u2581\u01b0\u1edbc": 1305,
  "\u2581R\u1ea5t": 1306,
  "\u2581later": 1307,
  "\u2581\u00e2m": 1308,
  "\u2581\u00e1p": 1309,
  "\u2581tai": 1310,
  "\u2581thi\u1ebfu": 1311,
  "\u2581V\u00e0o": 1312,
  "\u2581r\u00e0ng": 1313,
  "\u2581wasn": 1314,
  "\u2581gi\u00e1c": 1315,
  "\u2581tri\u1ec7u": 1316,
  "\u2581c\u0103n": 1317,
  "\u2581l\u1ec7nh": 1318,
  "\u2581ph\u1ea9m": 1319,
  "\u2581th\u00ea": 1320,
  "\u258112": 1321,
  "\u2581once": 1322,
  "\u2581second": 1323,
  "\u2581change": 1324,
  "\u2581nguy": 1325,
  "\u2581ki\u1ebfn": 1326,
  "\u2581asked": 1327,
  "\u2581d\u1ee5": 1328,
  "\u2581cung": 1329,
  "\u2581tr\u00e1nh": 1330,
  "\u2581ch\u1ebf": 1331,
  "\u2581point": 1332,
  "\u2581meet": 1333,
  "\u2581mong": 1334,
  "\u2581friends": 1335,
  "\u2581d\u1eef": 1336,
  "\u2581morning": 1337,
  "\u2581With": 1338,
  "\u2581bu\u1ed3n": 1339,
  "\u2581making": 1340,
  "\u2581c\u01b0\u1eddi": 1341,
  "\u2581kh\u1ed1n": 1342,
  "\u2581hands": 1343,
  "na": 1344,
  "\u2581given": 1345,
  "\u2581since": 1346,
  "\u2581T\u1eeb": 1347,
  "\u2581myself": 1348,
  "\u2581la": 1349,
  "\u2581tr\u1ee3": 1350,
  "\u25817": 1351,
  "\u2581l\u1eafng": 1352,
  "\u2581qu\u00e1i": 1353,
  "\u2581case": 1354,
  "\u2581thy": 1355,
  "\u2581side": 1356,
  "\u2581These": 1357,
  "\u2581bi\u1ec3n": 1358,
  "\u2581r\u01a1": 1359,
  "\u2581lost": 1360,
  "\u2581gone": 1361,
  "\u2581On": 1362,
  "\u2581b\u00e1nh": 1363,
  "\u2581ph\u00fac": 1364,
  "\u2581h\u00f2a": 1365,
  "\u2581parents": 1366,
  "\u2581l\u1ed1i": 1367,
  "\u2581among": 1368,
  "\u2581school": 1369,
  "\u2581ready": 1370,
  "\u2581h\u1eefu": 1371,
  "\u2581l\u00e3o": 1372,
  "\u2581Have": 1373,
  "\u2581alone": 1374,
  "\u2581reason": 1375,
  "\u2581b\u00f3ng": 1376,
  "\u2581full": 1377,
  "\u2581news": 1378,
  "\u2581d\u1ef1ng": 1379,
  "\u2581\u0111o\u1ea1n": 1380,
  "\u2581thu": 1381,
  "\u2581r\u01b0\u1ee3u": 1382,
  "\u2581baby": 1383,
  "\u2581congregation": 1384,
  "\u2581eat": 1385,
  "\u2581kh\u1eafp": 1386,
  "\u2581l\u1eeda": 1387,
  "\u2581wanna": 1388,
  "\u2581body": 1389,
  "\u2581s\u1ea1ch": 1390,
  "\u2581d\u1ea7u": 1391,
  "\u2581gotta": 1392,
  "\u2581m\u1eddi": 1393,
  "\u2581high": 1394,
  "\u2581th\u1eb3ng": 1395,
  "\u2581mai": 1396,
  "\u2581C\u0169ng": 1397,
  "\u2581\u0110\u1ea1i": 1398,
  "\u2581D": 1399,
  "\u2581sent": 1400,
  "\u2581speak": 1401,
  "\u2581anyone": 1402,
  "\u2581M\u1ef9": 1403,
  "\u2581four": 1404,
  "\u2581fact": 1405,
  "\u2581Stop": 1406,
  "\u2581ki\u1ec7n": 1407,
  "\u2581happy": 1408,
  "\u2581\u0111\u1ed5": 1409,
  "\u2581fire": 1410,
  "\u2581lai": 1411,
  "\u2581Father": 1412,
  "\u2581kh\u0103n": 1413,
  "\u2581k\u00eca": 1414,
  "\u2581Ha": 1415,
  "\u2581v\u00f9ng": 1416,
  "\u2581soon": 1417,
  "\u2581t\u0103ng": 1418,
  "\u2581fuck": 1419,
  "\u2581d\u1eady": 1420,
  "\u2581C\u1ee9": 1421,
  "\u2581t\u00edch": 1422,
  "\u2581spiritual": 1423,
  "\u2581s\u1eeda": 1424,
  "\u2581s\u00e2u": 1425,
  "\u2581thinking": 1426,
  "\u2581Some": 1427,
  "\u2581maybe": 1428,
  "\u2581b\u00e8n": 1429,
  "\u2581K": 1430,
  "\u2581learn": 1431,
  "\u2581Hai": 1432,
  "\u2581See": 1433,
  "\u2581Ch\u00fa": 1434,
  "\u2581Ra": 1435,
  "\u2581After": 1436,
  "\u2581An": 1437,
  "\u2581species": 1438,
  "\u2581ti\u1ebft": 1439,
  "\u2581Like": 1440,
  "\u25813:": 1441,
  "\u2581wouldn": 1442,
  "\u2581bit": 1443,
  "\u2581nghi": 1444,
  "\u2581sang": 1445,
  "\u2581r\u1eddi": 1446,
  "\u2581child": 1447,
  "\u2581l\u01b0u": 1448,
  "\u2581war": 1449,
  "\u2581five": 1450,
  "\u2581T\u00ean": 1451,
  "\u2581Our": 1452,
  "\u2581ngh\u1ecb": 1453,
  "\u2581door": 1454,
  "\u2581tri\u1ec3n": 1455,
  "\u2581th\u00e1i": 1456,
  "\u2581t": 1457,
  "\u2581\u0111\u1ea3m": 1458,
  "\u2581tha": 1459,
  "\u2581light": 1460,
  "\u2581H\u00ecnh": 1461,
  "\u2581t\u1ea5n": 1462,
  "\u2581living": 1463,
  "D": 1464,
  "\u2581tr\u1eadn": 1465,
  "\u2581kh\u1ecfe": 1466,
  "\u2581nice": 1467,
  "\u2581da": 1468,
  "\u2581th\u0103m": 1469,
  "\u2581\u0111\u00e1m": 1470,
  "\u2581m\u00e3i": 1471,
  "\u2581nh\u1eadp": 1472,
  "\u2581vi\u1ec7n": 1473,
  "\u2581\u00c0": 1474,
  "\u2581G\u00ec": 1475,
  "\u2581makes": 1476,
  "T": 1477,
  "\u2581ngh\u1ec9": 1478,
  "\u2581\u00e2n": 1479,
  "\u2581kh\u1ed5": 1480,
  "\u2581La": 1481,
  "\u2581v\u00e0ng": 1482,
  "\u2581s\u1edf": 1483,
  "\u2581\u0111u\u1ed5i": 1484,
  "\u2581peace": 1485,
  "\u2581food": 1486,
  "\u2581pretty": 1487,
  "\u2581M\u00ecnh": 1488,
  "\u2581Theo": 1489,
  "\u2581d\u00e2ng": 1490,
  "\u2581Trung": 1491,
  "\u2581Vi\u1ec7c": 1492,
  "\u2581rest": 1493,
  "\u2581g\u1eedi": 1494,
  "\u2581gi\u1eadn": 1495,
  "\u2581working": 1496,
  "\u2581question": 1497,
  "\u2581Ch\u00ednh": 1498,
  "\u25818": 1499,
  "\u2581comes": 1500,
  "\u2581di\u1ec7t": 1501,
  "\u2581d\u1ed7": 1502,
  "Tr\u1eddi": 1503,
  "\u2581order": 1504,
  "/": 1505,
  "\u2581V\u1edbi": 1506,
  "\u2581Thanks": 1507,
  "\u2581\u0110\u00e3": 1508,
  "T\u00f4i": 1509,
  "\u2581happen": 1510,
  "\u2581l\u1ea7m": 1511,
  "ri": 1512,
  "\u25812:": 1513,
  "\u2581ch\u0103m": 1514,
  "\u2581play": 1515,
  "\u2581b\u1ee9c": 1516,
  "\u2581s\u1edbm": 1517,
  "\u2581\u01b0": 1518,
  "\u2581ng\u00f4i": 1519,
  "\u2581wants": 1520,
  "\u2581tr\u1ea1ng": 1521,
  "\u2581c\u1ef1c": 1522,
  "\u2581th\u1eadn": 1523,
  "\u2581ng\u1eef": 1524,
  "\u2581free": 1525,
  "\u2581By": 1526,
  "\u2581r\u1ed1i": 1527,
  "\u2581su\u1ed1t": 1528,
  "\u2581\u1ed2": 1529,
  "\u2581h\u1eb3n": 1530,
  "\u2581thee": 1531,
  "\u2581Sorry": 1532,
  "\u2581th\u1ea5t": 1533,
  "\u2581m\u1ee9c": 1534,
  "\u2581b\u0103ng": 1535,
  "\u2581g\u00e3": 1536,
  "\u2581h\u1ecdp": 1537,
  "\u2581hold": 1538,
  "\u2581ng\u00f4n": 1539,
  "\u2581taking": 1540,
  "\u2581Be": 1541,
  "\u2581E": 1542,
  "\u2581fight": 1543,
  "\u2581v\u00e2ng": 1544,
  "\u2581n\u00e0ng": 1545,
  "\u2581gi\u00e0": 1546,
  "se": 1547,
  "\u2581\u00f4": 1548,
  "sa": 1549,
  "\u2581listen": 1550,
  "\u2581\u0111\u1ec1n": 1551,
  "The": 1552,
  "\u2581ho\u1ea1ch": 1553,
  "\u2581brothers": 1554,
  "\u2581gh\u00e9t": 1555,
  "\u2581v\u00edt": 1556,
  "\u2581ye": 1557,
  "\u2581message": 1558,
  "\u2581ch\u00e0ng": 1559,
  "\u2581answer": 1560,
  "\u2581Give": 1561,
  "\u2581g\u01b0\u01a1ng": 1562,
  "\u2581l\u1ed9": 1563,
  "\u2581tr\u1ed1n": 1564,
  "\u2581ph\u01b0\u1edbc": 1565,
  "\u25819": 1566,
  "\u2581ki\u1ec3u": 1567,
  "\u2581h\u1ed3": 1568,
  "\u2581Hay": 1569,
  "\u2581ph\u1ee7": 1570,
  "\u2581phim": 1571,
  "\u2581k\u00e9o": 1572,
  "\u2581lives": 1573,
  "\u2581thuy\u1ebft": 1574,
  "\u2581system": 1575,
  "\u2581Tell": 1576,
  "\u2581Will": 1577,
  "\u2581b\u1ecd": 1578,
  "\u2581quen": 1579,
  "\u2581trust": 1580,
  "\u2581n\u00fai": 1581,
  "\u2581themselves": 1582,
  "\u2581cu\u1ed1n": 1583,
  "\u2581died": 1584,
  "\u2581c\u1ea7m": 1585,
  "\u2581King": 1586,
  "\u2581ng\u1edd": 1587,
  "\u2581husband": 1588,
  "\u2581Ngay": 1589,
  "\u2581Gia": 1590,
  "\u2581everyone": 1591,
  "\u2581tr\u1eeb": 1592,
  "\u2581cannot": 1593,
  "\u2581ch\u01b0\u01a1ng": 1594,
  "\u2581k\u00fd": 1595,
  "\u2581m\u00f3n": 1596,
  "\u2581ch\u1edb": 1597,
  "\u2581ch\u00f3": 1598,
  "man": 1599,
  "\u2581v\u1ef1c": 1600,
  "\u2581nh\u1eafc": 1601,
  "\u2581l\u00e3nh": 1602,
  "b": 1603,
  "\u2581whom": 1604,
  "\u2581women": 1605,
  "\u2581Giu": 1606,
  "\u2581Even": 1607,
  "\u2581c\u1ed9ng": 1608,
  "\u2581c\u1eady": 1609,
  "\u2581started": 1610,
  "\u2581th\u1ecbt": 1611,
  "\u2581x\u00fac": 1612,
  "\u2581khoa": 1613,
  "\u2581deal": 1614,
  "\u2581vinh": 1615,
  "\u2581\u0110a": 1616,
  "\u2581daughter": 1617,
  "\u2581c\u1ea1nh": 1618,
  "\u2581study": 1619,
  "\u2581\u0111\u00ea": 1620,
  "\u2581\u25a1": 1621,
  "\u2581ni\u1ec1m": 1622,
  "\u2581phong": 1623,
  "\u2581business": 1624,
  "\u2581h\u1ed3i": 1625,
  "\u2581M\u00f4i": 1626,
  "\u2581knows": 1627,
  "\u2581nh\u1ea1c": 1628,
  "\u2581ho\u00e0ng": 1629,
  "\u2581ch\u00faa": 1630,
  "g": 1631,
  "\u2581N": 1632,
  "\u2581r\u1ed9ng": 1633,
  "\u2581L\u00fac": 1634,
  "\u2581future": 1635,
  "\u2581b\u1ea1i": 1636,
  "\u2581t\u01b0\u1eddng": 1637,
  "la": 1638,
  "\u2581h\u00e1t": 1639,
  "Name": 1640,
  "\u2581d\u00f2ng": 1641,
  "\u2581minutes": 1642,
  "\u2581inside": 1643,
  "\u2581save": 1644,
  "\u2581law": 1645,
  "\u2581guess": 1646,
  "\u2581Qu\u1ed1c": 1647,
  "\u2581taken": 1648,
  "\u2581b\u1ea1c": 1649,
  "\u25811:": 1650,
  "\u2581d\u1ee5c": 1651,
  "\u25814:": 1652,
  "\u2581became": 1653,
  "\u2581gi\u1ea3n": 1654,
  "\u2581Moses": 1655,
  "\u2581m\u01a1": 1656,
  "\u2581tim": 1657,
  "on": 1658,
  "\u2581c": 1659,
  "\u2581Cer": 1660,
  "\u2581S\u1ebd": 1661,
  "\u2581stand": 1662,
  "\u2581walk": 1663,
  "\u2581ti\u1ec7t": 1664,
  "\u2581country": 1665,
  "\u2581cai": 1666,
  "\u2581haven": 1667,
  "\u2581b\u00ed": 1668,
  "to": 1669,
  "\u2581n\u1eb7ng": 1670,
  "\u2581sons": 1671,
  "\u2581Nhanh": 1672,
  "\u2581needs": 1673,
  "\u2581\u0111\u1eb7ng": 1674,
  "\u2581Jerusalem": 1675,
  "\u2581c\u01b0": 1676,
  "\u2581ph\u1ee5ng": 1677,
  "\u2581t\u0129nh": 1678,
  "\u2581yes": 1679,
  "ers": 1680,
  "\u2581ngu": 1681,
  "\u2581b\u1ed1n": 1682,
  "us": 1683,
  "\u2581possible": 1684,
  "\u2581\u01a1": 1685,
  "\u2581s": 1686,
  "\u2581s\u00f3c": 1687,
  "\u2581beetle": 1688,
  "\u2581tr\u1ea1i": 1689,
  "\u2581\u0111en": 1690,
  "\u2581story": 1691,
  "\u2581holy": 1692,
  "\u2581ch\u1eefa": 1693,
  "\u2581Hi": 1694,
  "\u2581t\u1ea3": 1695,
  "\u2581t\u1eadn": 1696,
  "\u2581Th\u00e1i": 1697,
  "\u2581d\u1eebng": 1698,
  "\u2581m\u1eafc": 1699,
  "\u2581\u0110\u01b0a": 1700,
  "\u2581hours": 1701,
  "\u2581half": 1702,
  "\u2581kh\u1ee7ng": 1703,
  "\u2581ph\u01b0\u1ee3ng": 1704,
  "\u2581drink": 1705,
  "\u2581b\u00e0y": 1706,
  "\u2581n\u1ed7i": 1707,
  "\u2581fear": 1708,
  "\u2581wrote": 1709,
  "\u2581Dad": 1710,
  "\u2581known": 1711,
  "\u2581tr\u0103m": 1712,
  "\u2581Jack": 1713,
  "\u2581l\u1ef1a": 1714,
  "\u2581hurt": 1715,
  "\u2581ch\u1eebng": 1716,
  "\u2581cut": 1717,
  "\u2581ch\u1eef": 1718,
  "\u2581l\u1edbp": 1719,
  "\u2581ph\u00f9": 1720,
  "amby": 1721,
  "\u2581couldn": 1722,
  "\u2581kh\u00edch": 1723,
  "\u2581ways": 1724,
  "\u2581mine": 1725,
  "or": 1726,
  "cidae": 1727,
  "am": 1728,
  "\u2581c\u1eaft": 1729,
  "\u2581ngon": 1730,
  "\u2581Cerambycidae": 1731,
  "\u2581ngh\u1ecbch": 1732,
  "\u2581\u0110\u1ebfn": 1733,
  "\u2581line": 1734,
  "k": 1735,
  "P": 1736,
  "\u2581least": 1737,
  "\u2581alive": 1738,
  "\u2581pay": 1739,
  "\u2581beautiful": 1740,
  "\u2581ng\u00e0n": 1741,
  "\u2581Vua": 1742,
  "\u2581service": 1743,
  "\u2581ng\u0103n": 1744,
  "\u2581ngu\u1ed3n": 1745,
  "\u2581mi\u1ec7ng": 1746,
  ",\"": 1747,
  "\u2581c\u1ee5": 1748,
  "\u2581small": 1749,
  "\u2581OK": 1750,
  "\u2581t\u1ed9c": 1751,
  "\u2581From": 1752,
  "B": 1753,
  "\u2581sense": 1754,
  "x": 1755,
  "\u2581k\u1ef9": 1756,
  "\u2581M": 1757,
  "\u2581Dr": 1758,
  "\u2581th\u00e1ch": 1759,
  "\u2581phone": 1760,
  "\u2581Tr\u01b0\u1edbc": 1761,
  "\u2581York": 1762,
  "\u2581game": 1763,
  "\u2581nghi\u00ean": 1764,
  "M": 1765,
  "\u2581V\u1ec1": 1766,
  "ma": 1767,
  "\u2581afraid": 1768,
  "\u2581c\u0169": 1769,
  "\u2581Really": 1770,
  "\u2581kid": 1771,
  "\u2581behind": 1772,
  "\u2581k\u00eau": 1773,
  "\u2581c\u01b0\u1edbi": 1774,
  "\u25815:": 1775,
  "\u2581c\u01a1n": 1776,
  "\u2581\u00e1nh": 1777,
  "\u2581nor": 1778,
  "\u2581binh": 1779,
  "\u2581v\u01b0\u1ee3t": 1780,
  "\u2581worry": 1781,
  "\u2581gi\u1ecfi": 1782,
  "li": 1783,
  "\u2581x\u01b0a": 1784,
  "\u2581\u0111a": 1785,
  "\u2581probably": 1786,
  "\u2581\u0111\u00f2i": 1787,
  "\u2581Frank": 1788,
  "\u2581Son": 1789,
  "\u2581th\u1eadm": 1790,
  "\u2581song": 1791,
  "\u2581H\u1ee1i": 1792,
  "\u2581H\u1ed9i": 1793,
  "\u2581clear": 1794,
  "\u2581bu\u1ed9c": 1795,
  "\u258111": 1796,
  "an": 1797,
  "\u2581Hy": 1798,
  "\u2581G": 1799,
  "\u2581s\u1eafc": 1800,
  "\u2581huh": 1801,
  "\u2581un": 1802,
  "\u2581along": 1803,
  "\u2581kh\u00f3a": 1804,
  "\u2581often": 1805,
  "\u2581h\u1eadu": 1806,
  "\u2581questions": 1807,
  "\u2581easy": 1808,
  "\u2581Word": 1809,
  "n\u00f3": 1810,
  "\u2581nghi\u00eam": 1811,
  "\u2581stuff": 1812,
  "\u2581m\u1eabu": 1813,
  "\u258118": 1814,
  "\u2581late": 1815,
  "\u2581s\u00f3t": 1816,
  "\u2581v\u1eefng": 1817,
  "\u2581control": 1818,
  "\u2581sister": 1819,
  "\u2581Nhi\u1ec1u": 1820,
  "\u2581t\u1eafc": 1821,
  "\u2581chi\u00ean": 1822,
  "\u2581during": 1823,
  "\u2581Satan": 1824,
  "\u2581C\u1ea3": 1825,
  "\u2581h\u1ed3n": 1826,
  "\u2581l\u00e1i": 1827,
  "\u2581d\u00e2y": 1828,
  "\u2581L\u1ea1i": 1829,
  "\u2581s\u1ed5": 1830,
  "\u2581d\u00f5i": 1831,
  "\u2581works": 1832,
  "\u2581Xem": 1833,
  "\u2581l\u00ednh": 1834,
  "\u2581thu\u1eadn": 1835,
  "\u2581watch": 1836,
  "\u2581exactly": 1837,
  "\u2581t\u00f2a": 1838,
  "\u2581moment": 1839,
  "\u2581months": 1840,
  "\u2581tonight": 1841,
  "\u2581chance": 1842,
  "\u2581Listen": 1843,
  "\u2581nam": 1844,
  "\u2581ph\u00ed": 1845,
  "\u2581goes": 1846,
  "\u2581sleep": 1847,
  "\u2581Th\u01b0a": 1848,
  "\u2581thank": 1849,
  "\u2581\u1ea5n": 1850,
  "\u2581qu\u1ea3n": 1851,
  "\u2581past": 1852,
  "\u2581k\u00edch": 1853,
  "\u2581li": 1854,
  "\u2581information": 1855,
  "\u2581six": 1856,
  "\u2581h\u1ecda": 1857,
  "\u2581tr\u1ecdn": 1858,
  "\u2581ch\u0103ng": 1859,
  "\u25816:": 1860,
  "\u2581nh\u1ea3y": 1861,
  "\u2581N\u00ean": 1862,
  "\u2581hoa": 1863,
  "\u2581Thi": 1864,
  "\u2581ngh\u1ec7": 1865,
  "\u2581hit": 1866,
  "\".": 1867,
  "\u2581\u0111\u01b0\u01a1ng": 1868,
  "\u2581kids": 1869,
  "\u2581l\u00e1": 1870,
  "\u2581Could": 1871,
  "\u2581safe": 1872,
  "\u2581khai": 1873,
  "\u2581luy\u1ec7n": 1874,
  "\u2581James": 1875,
  "\u2581serve": 1876,
  "\u2581view": 1877,
  "\u2581looks": 1878,
  "\u2581c\u1eed": 1879,
  "\u2581tried": 1880,
  "\u2581However": 1881,
  "\u2581n\u00f3ng": 1882,
  "\u2581n\u1ec1n": 1883,
  "\u2581knowledge": 1884,
  "\u258150": 1885,
  "\u2581Nh\u00e0": 1886,
  "\u2581Would": 1887,
  "\u2581b\u1eefa": 1888,
  "\u2581sin": 1889,
  "\u2581ti\u1ebfc": 1890,
  "\u2581heaven": 1891,
  "\u2581return": 1892,
  "\u2581needed": 1893,
  "\u2581married": 1894,
  "\u2581th\u1ecfa": 1895,
  "\u2581crazy": 1896,
  "\u2581\u0111\u1ea1t": 1897,
  "\u2581ng\u1ef1a": 1898,
  "\u2581met": 1899,
  "\u2581ng\u1ed1c": 1900,
  "\u2581l": 1901,
  "\u2581began": 1902,
  "ic": 1903,
  "\u2581tr\u1ea3i": 1904,
  "\u2581\u0111\u00edch": 1905,
  "\u2581folder": 1906,
  "\u2581tr\u1ee5": 1907,
  "\u2581H\u00ea": 1908,
  "\u2581servants": 1909,
  "\u2581tomorrow": 1910,
  "\u2581c\u1ea5t": 1911,
  "\u2581t\u00f9y": 1912,
  "\u2581ng\u1ea1c": 1913,
  "\u2581qu\u1ea7n": 1914,
  "\u2581t\u1ea1p": 1915,
  "\u2581Picture": 1916,
  "\u2581d\u1ea1ng": 1917,
  "\u2581Ah": 1918,
  "\u2581couple": 1919,
  "\u2581apostle": 1920,
  "\u2581\u0111\u1ea9y": 1921,
  "\u2581Sir": 1922,
  "\u2581F": 1923,
  "\u2581promise": 1924,
  "\u2581n\u1eeda": 1925,
  "\u2581\u0111\u1ea3o": 1926,
  "\u0111a": 1927,
  "\u2581cause": 1928,
  "\u2581P": 1929,
  "\u2581supposed": 1930,
  "\u2581U": 1931,
  "\u2581feet": 1932,
  "\u2581gi\u1ea3m": 1933,
  "\u2581gi\u1ea5y": 1934,
  "\u2581l\u01b0\u01a1ng": 1935,
  "\u2581worship": 1936,
  "\u2581chim": 1937,
  "\u2581se": 1938,
  "\u2581Sam": 1939,
  "\u2581strong": 1940,
  "l\u00e0": 1941,
  "\u2581ly": 1942,
  "\u2581follow": 1943,
  "\u2581\u0111\u00f9a": 1944,
  "\u2581nu\u00f4i": 1945,
  "\u2581r\u01a1i": 1946,
  "\u2581almost": 1947,
  "\u2581quite": 1948,
  "\u2581Man": 1949,
  "\u2581thi\u1ec7n": 1950,
  "\u2581Nothing": 1951,
  "\u2581sanh": 1952,
  "\u2581shot": 1953,
  "\u2581ri": 1954,
  "\u2581x\u00e3": 1955,
  "\u2581May": 1956,
  "\u2581c\u01b0\u1edbp": 1957,
  "\u2581k\u00ec": 1958,
  "\u2581\u00c1p": 1959,
  "You": 1960,
  "\u2581break": 1961,
  "\u258116": 1962,
  "\u2581Keep": 1963,
  "\u2581Matthew": 1964,
  "\u2581lo\u1ea1n": 1965,
  "\u2581n\u1ed5": 1966,
  "\u2581Those": 1967,
  "\u2581l\u1eeba": 1968,
  "\u258114": 1969,
  "\u2581nh\u00f3c": 1970,
  "\u2581Ch\u1ebft": 1971,
  "\u2581week": 1972,
  "\u258140": 1973,
  "\u2581m\u01b0\u1eddi": 1974,
  "\u2581\u0111o\u00e0n": 1975,
  "\u2581c\u1eadp": 1976,
  "\u2581minute": 1977,
  "\u2581m\u1eafn": 1978,
  "\u2581Me": 1979,
  "\u2581according": 1980,
  "en": 1981,
  "\u2581million": 1982,
  "\u2581L": 1983,
  "ba": 1984,
  "\u2581s\u1ebfp": 1985,
  "\u2581wish": 1986,
  "\u2581outside": 1987,
  "\u2581n\u00e3o": 1988,
  "\u2581Si": 1989,
  "\u2581felt": 1990,
  "nh": 1991,
  "\u2581chuy\u00ean": 1992,
  "\u2581gets": 1993,
  "H": 1994,
  "\u2581t\u1ec9nh": 1995,
  "\u2581Tuy\u1ec7t": 1996,
  "\u2581Wow": 1997,
  "t\u00f4i": 1998,
  "\u2581Gi\u0103ng": 1999,
  "\u2581phi": 2000,
  "\u2581personal": 2001,
  "\u2581t\u1ed3n": 2002,
  "\u2581b\u00f2": 2003,
  "\u2581\u1ea9n": 2004,
  "\u2581chi\u1ec1u": 2005,
  "G": 2006,
  "\u2581ph\u00f3": 2007,
  "\u2581so\u00e1t": 2008,
  "\u2581Th\u1ee9": 2009,
  "\u2581hi\u1ec3n": 2010,
  "\u2581whatever": 2011,
  "\u2581ain": 2012,
  "\u2581voice": 2013,
  "\u258124": 2014,
  "\u2581early": 2015,
  "\u2581che": 2016,
  "\u2581m\u00f9a": 2017,
  "\u2581special": 2018,
  "\u2581ty": 2019,
  "Y": 2020,
  "ru": 2021,
  "\u2581d\u1ef1a": 2022,
  "\u258117": 2023,
  "\u2581c\u00e1m": 2024,
  "\u2581soul": 2025,
  "\u2581gi\u00e1m": 2026,
  "\u2581h\u1eb9n": 2027,
  "\u2581Does": 2028,
  "%": 2029,
  "\u2581front": 2030,
  "\u2581certain": 2031,
  "\u2581gun": 2032,
  "\u2581g\u1ed3m": 2033,
  "\u2581anymore": 2034,
  "\u2581evil": 2035,
  "\u2581using": 2036,
  "\u2581100": 2037,
  "\u2581b\u1ea3y": 2038,
  "\u2581send": 2039,
  "\u2581dad": 2040,
  "\u2581n\u1ed9i": 2041,
  "\u2581either": 2042,
  "\u2581Ch\u1edd": 2043,
  "\u2581office": 2044,
  "\u2581sort": 2045,
  "\u2581t\u1ea1m": 2046,
  "\u2581longer": 2047,
  "\u2581forth": 2048,
  "\u2581thuy\u1ec1n": 2049,
  "\u2581share": 2050,
  "\u2581police": 2051,
  "\u2581t\u00e0n": 2052,
  "\u2581waiting": 2053,
  "\u2581m\u00e1i": 2054,
  "le": 2055,
  "\u2581therefore": 2056,
  "\u2581Great": 2057,
  "\u2581century": 2058,
  "\u2581kh\u00f3c": 2059,
  "\u2581neither": 2060,
  "\u2581present": 2061,
  "\u2581nations": 2062,
  "\u2581toward": 2063,
  "\u2581plan": 2064,
  "\u2581near": 2065,
  "\u2581t\u1ea5m": 2066,
  "ness": 2067,
  "\u2581giving": 2068,
  "\u2581perfect": 2069,
  "\u2581kh\u1edfi": 2070,
  "\u2581c\u1ea3i": 2071,
  "\u2581check": 2072,
  "\u2581forget": 2073,
  "\u2581l\u1eabn": 2074,
  "\u2581dung": 2075,
  "\u2581r\u00f4": 2076,
  "\u2581Hoa": 2077,
  "\u2581Ch\u00fac": 2078,
  "\u2581turned": 2079,
  "\u2581sound": 2080,
  "\u2581pass": 2081,
  "\u2581ass": 2082,
  "\u2581ti\u1ec7c": 2083,
  "\u2581faithful": 2084,
  "\u2581ni\u00ean": 2085,
  "\u2581\u1ed5ng": 2086,
  "\u2581ph\u1ea1t": 2087,
  "\u2581following": 2088,
  "\u2581trouble": 2089,
  "\u2581T\u00e2y": 2090,
  "\u2581seven": 2091,
  "\u2581x": 2092,
  "\u2581Excuse": 2093,
  "\u2581Mary": 2094,
  "\u2581H\u00f4m": 2095,
  "\u2581h\u01b0": 2096,
  "\u2581sit": 2097,
  "\u2581t\u1ed5ng": 2098,
  "R": 2099,
  "\u2581ki\u1ebfp": 2100,
  "\u2581n\u1ed1i": 2101,
  "\u2581town": 2102,
  "\u2581lead": 2103,
  "\u2581less": 2104,
  "eth": 2105,
  "\u2581ahead": 2106,
  "able": 2107,
  "\u2581c\u1ea9n": 2108,
  "L": 2109,
  "\u2581re": 2110,
  "\u2581gi\u00e0u": 2111,
  "\u2581hundred": 2112,
  "\u2581vai": 2113,
  "\u2581Tin": 2114,
  "\u2581disciples": 2115,
  "\u2581m\u00e3": 2116,
  "\u2581phi\u1ec1n": 2117,
  "\u2581mouth": 2118,
  "\u2581Th\u00ec": 2119,
  "\u2581khi\u1ec3n": 2120,
  "\u2581\u0111\u00f3i": 2121,
  "\u2581Fuck": 2122,
  "\u2581to\u00e1n": 2123,
  "\u2581ham": 2124,
  "Laughter": 2125,
  "\u2581Ben": 2126,
  "\u2581telling": 2127,
  "\u2581tr\u1ef1c": 2128,
  "\u2581experience": 2129,
  "\u2581t\u1ed1": 2130,
  "\u2581B\u00e1c": 2131,
  "\u2581\u00d0a": 2132,
  "\u2581\u0111i\u1ec7p": 2133,
  "\u2581problems": 2134,
  "\u2581b\u1ea1o": 2135,
  "\u2581mau": 2136,
  "\u2581Hold": 2137,
  "\u2581within": 2138,
  "\u2581ph\u00ea": 2139,
  "\u2581clean": 2140,
  "\u2581field": 2141,
  "\u2581consider": 2142,
  "\u2581x\u1ebfp": 2143,
  "ch": 2144,
  "\u2581h\u00fat": 2145,
  "\u2581Help": 2146,
  "\u2581nh\u1eadt": 2147,
  "\u2581tr\u1eafng": 2148,
  "\u2581t\u00e1": 2149,
  "\u2581m\u1ebfn": 2150,
  "\u2581c\u1edb": 2151,
  "\u2581team": 2152,
  "\u2581l\u0169": 2153,
  "\u2581xung": 2154,
  "\u258125": 2155,
  "\u2581fun": 2156,
  "\u2581M\u1ea5y": 2157,
  "\u2581learned": 2158,
  "\u2581v\u1ebft": 2159,
  "\u2581chuy\u1ebfn": 2160,
  "\u2581kh\u1eafc": 2161,
  "\u2581Na": 2162,
  "\u2581Which": 2163,
  "\u2581N\u0103m": 2164,
  ").": 2165,
  "\u2581s\u00f4ng": 2166,
  "\u2581fall": 2167,
  "\u2581ten": 2168,
  "\u2581Ph\u00e1p": 2169,
  "\u2581serious": 2170,
  "\u2581t\u1ea7m": 2171,
  "\u2581rather": 2172,
  "N": 2173,
  "\u2581lose": 2174,
  "\u258113": 2175,
  "\u2581M\u00e0": 2176,
  "\u2581\u0111\u00f3n": 2177,
  "\u2581purpose": 2178,
  "\u2581R": 2179,
  "\u2581age": 2180,
  "\u2581\u0111\u1ecf": 2181,
  "\u2581C\u00e2u": 2182,
  "\u2581seems": 2183,
  "\u2581ki\u00ean": 2184,
  "\"?": 2185,
  "\u2581hate": 2186,
  "\u2581buy": 2187,
  "\u2581d\u00e1m": 2188,
  "\u2581#": 2189,
  "\u2581X": 2190,
  "\u2581r\u00fat": 2191,
  "\u2581Gi\u00e1o": 2192,
  "\u2581\u0111\u01b0\u01a1": 2193,
  "\u2581hour": 2194,
  "\u2581self": 2195,
  "\u2581situation": 2196,
  "\u2581seem": 2197,
  "\u2581l\u1ea1nh": 2198,
  "\u2581L\u1ea7n": 2199,
  "\u2581kept": 2200,
  "\u2581d\u00e0ng": 2201,
  "\u2581ground": 2202,
  "\u2581sea": 2203,
  "\u2581\u0111\u1ed9t": 2204,
  "\u2581D\u1eebng": 2205,
  "\u2581ourselves": 2206,
  "\u2581sick": 2207,
  "\u2581M\u1ed7i": 2208,
  "\u2581whether": 2209,
  "\u2581B\u1ed9": 2210,
  "\u2581v\u00ed": 2211,
  "\u2581choice": 2212,
  "\u2581Miss": 2213,
  "\u2581\u0111\u1ef1ng": 2214,
  "\u2581changed": 2215,
  "\u2581top": 2216,
  "\u2581loved": 2217,
  "\u2581Whoa": 2218,
  "trai": 2219,
  "\u2581ng\u01b0\u1ee3c": 2220,
  "\u2581video": 2221,
  "\u2581marriage": 2222,
  "\u2581chu\u1ed9c": 2223,
  "\u2581th\u1ec1": 2224,
  "\u2581ch\u1ed1i": 2225,
  "\u2581t\u1edd": 2226,
  "\u2581B\u1ecf": 2227,
  "\u2581V": 2228,
  "\u2581building": 2229,
  "\u2581d\u1ea7n": 2230,
  "\u2581Mom": 2231,
  "\u2581th\u01b0\u1edfng": 2232,
  "\u2581Yet": 2233,
  "\u2581happens": 2234,
  "\u2581hung": 2235,
  "\u2581write": 2236,
  "\u2581gi\u00e2y": 2237,
  "is": 2238,
  "\u2581m\u00e0n": 2239,
  "\u2581First": 2240,
  "\u2581th\u1eeba": 2241,
  "\u2581m\u00ea": 2242,
  "\u2581forever": 2243,
  "\u2581s\u00e1u": 2244,
  "\u2581ph\u1eadn": 2245,
  "\u2581running": 2246,
  "\u2581tr\u1ed9m": 2247,
  "\u2581Michael": 2248,
  "\u2581\u0110ang": 2249,
  "\u2581joy": 2250,
  "\u2581d\u01b0\u1eddng": 2251,
  "\u2581history": 2252,
  "\u2581h\u1ed9p": 2253,
  "\u2581bed": 2254,
  "\u2581looked": 2255,
  "\u2581fast": 2256,
  "\u2581Two": 2257,
  "\u2581kho\u1ea3n": 2258,
  "\u2581offer": 2259,
  "\u2581language": 2260,
  "\u2581Nam": 2261,
  "\u2581K\u1ebb": 2262,
  "\u2581th\u1ea3o": 2263,
  "\u2581born": 2264,
  "\u2581Put": 2265,
  "\u2581Ga": 2266,
  "\u2581ti\u1ec7n": 2267,
  ">": 2268,
  "\u2581Ch\u01b0a": 2269,
  "\u2581b\u00e1p": 2270,
  "\u2581Judah": 2271,
  "\u2581\u0111\u1ea1n": 2272,
  "\u2581hath": 2273,
  "\u2581xanh": 2274,
  "\u2581h\u1ea1t": 2275,
  "\u2581Only": 2276,
  "\u2581fellow": 2277,
  "\u2581People": 2278,
  "\u2581ru": 2279,
  "\u2581de": 2280,
  "\u2581B\u1eb1ng": 2281,
  "\u2581act": 2282,
  "\u2581aren": 2283,
  "\u2581s\u1ebb": 2284,
  "\u2581N\u00e0o": 2285,
  "\u2581thousand": 2286,
  "\u2581Th\u1ef1c": 2287,
  "\u2581Th\u1eb1ng": 2288,
  "\u2581humans": 2289,
  "\u2581ph\u00f3ng": 2290,
  "\u2581t\u1eaft": 2291,
  "\u2581khen": 2292,
  "ion": 2293,
  "\u2581takes": 2294,
  "\u2581Psalm": 2295,
  "\u2581ph\u00e1i": 2296,
  "\u2581gold": 2297,
  "\u2581wicked": 2298,
  "\u2581\u266b": 2299,
  "\u2581eye": 2300,
  "\u2581nh\u1eabn": 2301,
  "\u2581feeling": 2302,
  "\u2581huy": 2303,
  "\u2581teach": 2304,
  "\u2581gi\u1ea5u": 2305,
  "\u2581group": 2306,
  "F": 2307,
  "\u2581attention": 2308,
  "\u2581poor": 2309,
  "\u2581Coi": 2310,
  "\u2581mom": 2311,
  "\u2581company": 2312,
  "\u2581s\u0103n": 2313,
  "\u2581quy": 2314,
  "\u2581respect": 2315,
  "\u2581th\u1eadp": 2316,
  "\u2581file": 2317,
  "\u2581continue": 2318,
  "\u2581support": 2319,
  "\u2581meeting": 2320,
  "\u2581month": 2321,
  "\u2581ministry": 2322,
  "ha": 2323,
  "\u2581party": 2324,
  "\u2581b\u1eadn": 2325,
  "\u2581asking": 2326,
  "\u2581th\u1ea3": 2327,
  "\u2581relationship": 2328,
  "\u2581T\u1ea1m": 2329,
  "\u2581mi": 2330,
  "\u2581bitch": 2331,
  "\u2581moved": 2332,
  "\u25814.": 2333,
  "\u2581h\u1ea3o": 2334,
  "\u2581b\u00e8": 2335,
  "\u2581girls": 2336,
  "\u2581loving": 2337,
  "\u2581\u00d0\u1ea5ng": 2338,
  "\u2581qu\u00e0": 2339,
  "\u2581Ch\u00e2u": 2340,
  "\u2581Sure": 2341,
  "\u2581B\u00ecnh": 2342,
  "\u2581J": 2343,
  "\u2581Adam": 2344,
  "\u2581preaching": 2345,
  "\u2581result": 2346,
  "\u2581ni\u1ec7m": 2347,
  "\u2581m\u1ebd": 2348,
  "\u2581R\u00f5": 2349,
  "\u2581pick": 2350,
  "\u2581lie": 2351,
  "\u2581t\u00f3c": 2352,
  "\u2581offering": 2353,
  "\u2581Abraham": 2354,
  "\u2581ch\u1ee9a": 2355,
  "\u2581wisdom": 2356,
  "\u2581Ho\u1eb7c": 2357,
  "\u2581t\u00eam": 2358,
  "\u2581Am": 2359,
  "\u2581hoang": 2360,
  "\u2581b\u01a1": 2361,
  "\u2581b\u1eadt": 2362,
  "!\"": 2363,
  "\u2581ng\u1ee3i": 2364,
  "\u2581Tr\u00e1i": 2365,
  "\u2581kh\u1ea9u": 2366,
  "\u2581c\u00e0": 2367,
  "\u2581sign": 2368,
  "\u2581Thay": 2369,
  "\u2581Qua": 2370,
  "\u2581Gi\u1ed1ng": 2371,
  "\u2581ng\u01b0\u01a1": 2372,
  "\u2581Thus": 2373,
  "\u25813.": 2374,
  "\u2581Daniel": 2375,
  "\u2581entire": 2376,
  "\u2581\u0111\u1eb1ng": 2377,
  "\u2581however": 2378,
  "\u2581b\u1ed9i": 2379,
  "\u2581somebody": 2380,
  "\u2581ngh\u00e8o": 2381,
  "\u2581Since": 2382,
  "\u2581D\u0129": 2383,
  "\u2581du": 2384,
  "\u2581Shit": 2385,
  "\u2581lived": 2386,
  "\u2581hot": 2387,
  "\u2581kh\u00e1m": 2388,
  "\u2581protect": 2389,
  "\u2581ch\u1ea3": 2390,
  "\u2581th\u01a1": 2391,
  "\u2581ni": 2392,
  "\u2581v\u1eadn": 2393,
  "\u2581x\u1ee9c": 2394,
  "\u2581Ki": 2395,
  "\u2581r\u1eafc": 2396,
  "\u2581worked": 2397,
  "\u2581th\u1edf": 2398,
  "\u2581th\u00ed": 2399,
  "\u2581nhu": 2400,
  "\u2581Stay": 2401,
  "\u2581th\u1ea3y": 2402,
  "\u2581g\u00f3p": 2403,
  "\u2581d\u1ecdn": 2404,
  "ro": 2405,
  "\u2581l\u1eb7ng": 2406,
  "\u2581Make": 2407,
  "\u2581t\u00fai": 2408,
  "\u2581Ngo\u00e0i": 2409,
  "\u2581l\u00ed": 2410,
  "\u2581ngang": 2411,
  "\u2581pain": 2412,
  "\u2581c\u1eadn": 2413,
  "\u2581x\u1ee9ng": 2414,
  "\u2581counsel": 2415,
  "\u2581H": 2416,
  "\u2581air": 2417,
  "\u2581enjoy": 2418,
  "\u2581brain": 2419,
  "\u2581written": 2420,
  "\u2581si": 2421,
  "\u2581Scriptures": 2422,
  "\u2581huy\u1ebft": 2423,
  "\u2581h\u00e3i": 2424,
  "\u2581Ban": 2425,
  "\u2581v\u1ebd": 2426,
  "\u2581m\u00f4i": 2427,
  "\u2581touch": 2428,
  "\u2581Lu\u1eadt": 2429,
  "\u2581hey": 2430,
  "\u2581mankind": 2431,
  "\u2581boys": 2432,
  "\u2581Move": 2433,
  "3": 2434,
  "\u2581Her": 2435,
  "and": 2436,
  "\u2581Egypt": 2437,
  "\u2581tr\u1ea5n": 2438,
  "\u2581\u0110\u1ed3": 2439,
  "\u2581lao": 2440,
  "\u2581Mark": 2441,
  "\u2581everybody": 2442,
  "\u2581Hmm": 2443,
  "\u2581B\u1eaft": 2444,
  "\u2581g": 2445,
  "\u2581moving": 2446,
  "\u2581h\u00f9ng": 2447,
  "\u2581difficult": 2448,
  "\u2581d\u1ecb": 2449,
  "\u2581elders": 2450,
  "up": 2451,
  "\u2581c\u1eb7p": 2452,
  "\u2581Many": 2453,
  "\u2581bi": 2454,
  "\u2581single": 2455,
  "\u2581helped": 2456,
  "\u2581honor": 2457,
  "\u2581bang": 2458,
  "\u2581leaving": 2459,
  "\u2581House": 2460,
  "\u2581World": 2461,
  "\u2581th\u1ee7y": 2462,
  "s\u1ef1": 2463,
  "\u2581nh\u1ee5c": 2464,
  "\u2581doctor": 2465,
  "\u2581strength": 2466,
  "\u2581h\u00e0i": 2467,
  "\u2581government": 2468,
  "\u2581kingdom": 2469,
  "\u2581sword": 2470,
  "\u2581certainly": 2471,
  "be": 2472,
  "\u2581evidence": 2473,
  "\u2581r\u1eebng": 2474,
  "ca": 2475,
  "\u2581bi\u00ea": 2476,
  "\u2581George": 2477,
  "\u2581build": 2478,
  "\u2581n\u1eafm": 2479,
  "\u2581shoot": 2480,
  "\u2581t\u1ee5i": 2481,
  "\u2581miss": 2482,
  "\u2581position": 2483,
  "\u2581simple": 2484,
  "\u2581H\u01a1n": 2485,
  "\u2581spoke": 2486,
  "\u2581ch\u1ea3y": 2487,
  "\u2581hi": 2488,
  "\u2581gives": 2489,
  "\u2581short": 2490,
  "\u2581s\u00e2n": 2491,
  "\u2581places": 2492,
  "\u2581white": 2493,
  "\u2581Captain": 2494,
  "\u2581Watch": 2495,
  "\u2581ch\u00e9p": 2496,
  "\u2581figure": 2497,
  "\u2581secret": 2498,
  "H\u00e3y": 2499,
  "\u2581d\u00e2m": 2500,
  "\u2581m\u01b0\u01a1i": 2501,
  "\u2581sex": 2502,
  "\u2581Ca": 2503,
  "\u2581T\u1ed5ng": 2504,
  "\u2581na": 2505,
  "\u2581Ni": 2506,
  "\u2581n\u1ee3": 2507,
  "\u2581ch\u1eb7t": 2508,
  "\u2581xuy\u00ean": 2509,
  "\u2581khuy\u1ebfn": 2510,
  "\u2581deep": 2511,
  "\u2581\u0111\u1eadp": 2512,
  "\u2581cool": 2513,
  "ie": 2514,
  "\u2581d\u1ecda": 2515,
  "\u2581\u0111\u00e0o": 2516,
  "\u2581gi\u00f3": 2517,
  "\u2581ch\u1ee5p": 2518,
  "\u2581prayer": 2519,
  "\u2581ch\u1ea1m": 2520,
  "\u2581black": 2521,
  "\u2581test": 2522,
  "\u2581righteous": 2523,
  "\u2581b\u1ea7u": 2524,
  "est": 2525,
  "\u2581Jews": 2526,
  "\u2581s\u1ed1t": 2527,
  "\u2581taught": 2528,
  "\u2581v\u00e2": 2529,
  "\u2581area": 2530,
  "\u2581\u0111\u00e0ng": 2531,
  "\u2581\u0111\u00e8n": 2532,
  "\u2581pray": 2533,
  "\u2581Earth": 2534,
  "O": 2535,
  "\u2581K\u1ef3": 2536,
  "\u2581b\u1ed5": 2537,
  "\u258112:": 2538,
  "\u2581M\u1eb7c": 2539,
  "\u2581hang": 2540,
  "\u2581temple": 2541,
  "vi": 2542,
  "\u2581wonderful": 2543,
  "\u2581Tr\u00ean": 2544,
  "\u2581\u1ee7ng": 2545,
  "\u2581chi\u1ebfu": 2546,
  "\u2581t\u1ed3i": 2547,
  "\u2581T\u1ed1i": 2548,
  "\u2581sun": 2549,
  "\u2581c\u00e2": 2550,
  "\u2581key": 2551,
  "\u2581Huh": 2552,
  "\u2581Mu\u1ed1n": 2553,
  "\u2581seeing": 2554,
  "\u2581Jim": 2555,
  "\u2581th\u00e2": 2556,
  "\u2581tr\u00ec": 2557,
  "\u2581Lu": 2558,
  "\u2581wise": 2559,
  "\u2581Every": 2560,
  "da": 2561,
  "\u2581class": 2562,
  "\u2581public": 2563,
  "\u2581h\u1ed5": 2564,
  "\u2581saved": 2565,
  "\u2581weeks": 2566,
  "\u2581security": 2567,
  "\u2581Tom": 2568,
  "el": 2569,
  "\u2581Cu\u1ed9c": 2570,
  "\u2581Re": 2571,
  "\u2581im": 2572,
  "\u2581B\u1ea5t": 2573,
  "\u2581received": 2574,
  "\u2581gi\u01b0\u1eddng": 2575,
  "\u258110.": 2576,
  "\u2581form": 2577,
  "K": 2578,
  "\u2581tuy\u00ean": 2579,
  "\u2581T\u00ecm": 2580,
  "\u2581b\u00e0o": 2581,
  "\u2581piece": 2582,
  "\u2581whose": 2583,
  "\u2581picture": 2584,
  "\u2581nhi\u1ec7t": 2585,
  "\u2581THE": 2586,
  "\u2581above": 2587,
  "\u2581value": 2588,
  "\u2581drive": 2589,
  "ation": 2590,
  "\u2581T\u00ecnh": 2591,
  "\u2581Isaiah": 2592,
  "it": 2593,
  "\u2581account": 2594,
  "\u2581state": 2595,
  "\u2581Cu\u1ed1i": 2596,
  "\u2581v\u01a1": 2597,
  "\u2581Joseph": 2598,
  "ton": 2599,
  "\u2581stupid": 2600,
  "\u2581ng\u1eebng": 2601,
  "2": 2602,
  "\u2581\u00e1m": 2603,
  "\u2581Canh": 2604,
  "\u2581happening": 2605,
  "\u2581Very": 2606,
  "ne": 2607,
  "\u2581\u0111\u00e2": 2608,
  "no": 2609,
  "\u2581Mrs": 2610,
  "\u2581th\u01b0\u1ee3ng": 2611,
  "\u2581finally": 2612,
  "\u2581flesh": 2613,
  "\u2581Luke": 2614,
  "\u2581damn": 2615,
  "\u2581Th\u1ea5y": 2616,
  "\u2581Tr\u00f4ng": 2617,
  "\u2581involved": 2618,
  "\u2581B\u1ea3n": 2619,
  "\u2581ancient": 2620,
  "\u2581hi\u1ec7p": 2621,
  "\u2581gift": 2622,
  "\u2581qu\u1ec9": 2623,
  "\u2581built": 2624,
  "\u2581prison": 2625,
  "\u2581C\u1ea3nh": 2626,
  "\u2581worth": 2627,
  "\u2581religious": 2628,
  "\u2581n\u00e8": 2629,
  "What": 2630,
  "\u2581win": 2631,
  "\u2581desire": 2632,
  "\u2581Everything": 2633,
  "\u2581qu\u1ef7": 2634,
  "\u2581Mi": 2635,
  "\u2581m": 2636,
  "\u2581g\u1ed1c": 2637,
  "\u2581um": 2638,
  "\u2581Ti": 2639,
  "\u2581Was": 2640,
  "\u2581Th\u1ea7n": 2641,
  "\u2581thus": 2642,
  "\u2581t\u1ed5n": 2643,
  "\u25811,": 2644,
  "\u2581qu\u00e1n": 2645,
  "\u2581Got": 2646,
  "\u2581United": 2647,
  "\u2581Name": 2648,
  "\u2581priest": 2649,
  "\u2581step": 2650,
  "\u2581Ko": 2651,
  "\u2581nation": 2652,
  "\u2581cold": 2653,
  "\u2581ha": 2654,
  "\u25815.": 2655,
  "\u2581glory": 2656,
  "\u2581sacrifice": 2657,
  "\u2581shut": 2658,
  "\u2581i": 2659,
  "\u2581n": 2660,
  "\u2581\u1ee7i": 2661,
  "\u2581Remember": 2662,
  "\u2581h\u1ee9ng": 2663,
  "\u2581m\u1ec7t": 2664,
  "\u2581Pha": 2665,
  "\u2581t\u1ed1c": 2666,
  "\u2581ch\u1ec9nh": 2667,
  "\u2581Ph\u00f2ng": 2668,
  "\u2581percent": 2669,
  "#244;": 2670,
  "\u2581list": 2671,
  "\u2581sheep": 2672,
  "\u2581completely": 2673,
  "\u2581m\u01b0u": 2674,
  "\u2581ng\u00e3": 2675,
  "\u2581accept": 2676,
  "\u2581Never": 2677,
  "\u2581thu\u00ea": 2678,
  "\u2581d\u00ednh": 2679,
  "\u2581sight": 2680,
  "\u2581d\u1ee9t": 2681,
  "\u2581servant": 2682,
  "\u2581v": 2683,
  "ni": 2684,
  "\u2581gi\u1ea5c": 2685,
  "\u2581third": 2686,
  "\u2581Mike": 2687,
  "\u2581T\u1ea1o": 2688,
  "\u2581c\u00e2n": 2689,
  "\u2581further": 2690,
  "\u2581khi\u00eam": 2691,
  "\u2581sometimes": 2692,
  "\u258110:": 2693,
  "\u2581explain": 2694,
  "\u2581reading": 2695,
  "\u2581report": 2696,
  "\u2581n\u00e9m": 2697,
  "\u2581Today": 2698,
  "\u2581ch\u00e1n": 2699,
  "\u2581h\u01b0\u01a1ng": 2700,
  "\u25817.": 2701,
  "\u2581D\u00e2n": 2702,
  "\u2581Rachel": 2703,
  "\u2581expect": 2704,
  "\u2581anointed": 2705,
  "\u2581h\u00e0o": 2706,
  "\u2581perhaps": 2707,
  "\u2581itself": 2708,
  "\u2581l\u01b0ng": 2709,
  "\u2581c\u1ea3n": 2710,
  "\u2581across": 2711,
  "\u2581large": 2712,
  "\u2581\u0110\u1ecdc": 2713,
  "\u2581truy": 2714,
  "\u2581Saul": 2715,
  "\u2581Um": 2716,
  "\u25813,": 2717,
  "\u2581Nice": 2718,
  "\u2581meant": 2719,
  "\u2581ship": 2720,
  "\u2581tr\u01b0ng": 2721,
  "\u2581tree": 2722,
  "\u2581hair": 2723,
  "\u2581lady": 2724,
  "\u2581v\u1ee1": 2725,
  "\u2581Read": 2726,
  "\u2581_": 2727,
  "\u2581funny": 2728,
  "\u2581m\u00f9i": 2729,
  "Anh": 2730,
  "\u2581ch\u1eadm": 2731,
  "\u2581\u0110\u1ee3i": 2732,
  "\u2581Ho\u00e0ng": 2733,
  "\u2581ch\u00fac": 2734,
  "co": 2735,
  "\u2581h\u1ea5p": 2736,
  "\u2581t\u1ea7ng": 2737,
  "\u2581k\u00ea": 2738,
  "\u2581Therefore": 2739,
  "\u2581mi\u1ec5n": 2740,
  "\u2581ti\u1ec3u": 2741,
  "w": 2742,
  "\u2581decided": 2743,
  "\u2581teaching": 2744,
  "\u2581\u0111\u1ed1ng": 2745,
  "\u2581dog": 2746,
  "\u2581h\u1ecfng": 2747,
  "\u2581L\u1ea1p": 2748,
  "\u2581Song": 2749,
  "\u2581n\u00eau": 2750,
  "\u2581ch\u1ea5m": 2751,
  "\u2581army": 2752,
  "ga": 2753,
  "\u2581Over": 2754,
  "\u2581local": 2755,
  "\u2581\u0110\u1ee9ng": 2756,
  "ah": 2757,
  "\u2581Khoan": 2758,
  "\u258111:": 2759,
  "\u2581Something": 2760,
  "\u2581chi\u1ebfm": 2761,
  "\u2581M\u00ea": 2762,
  "\u2581especially": 2763,
  "),": 2764,
  "\u2581bar": 2765,
  "\u2581<": 2766,
  "\u2581x\u01b0ng": 2767,
  "\u2581tr\u1ed3ng": 2768,
  "\u2581M\u00e3": 2769,
  "\u2581h\u1eb1ng": 2770,
  "\u2581image": 2771,
  "si": 2772,
  "\u2581t\u1eafm": 2773,
  "\u2581\u0111e": 2774,
  "\u2581imagine": 2775,
  "\u2581\u0111\u1ed1t": 2776,
  "\u2581K\u00fd": 2777,
  "\u2581remain": 2778,
  "\u2581ch\u1edf": 2779,
  "\u2581dream": 2780,
  "1": 2781,
  "z": 2782,
  "\u2581thanks": 2783,
  "\u2581huy\u1ec1n": 2784,
  "\u2581B\u1eafc": 2785,
  "\u2581Master": 2786,
  "\u2581none": 2787,
  "gia": 2788,
  "\u2581b\u1ea3ng": 2789,
  "\u2581health": 2790,
  "\u2581force": 2791,
  "\u2581Holy": 2792,
  "\u2581miles": 2793,
  "\u2581rule": 2794,
  "\u25818.": 2795,
  "\u2581receive": 2796,
  "\u2581attack": 2797,
  "\u2581beginning": 2798,
  "\u2581l\u01a1": 2799,
  "\u2581lem": 2800,
  "\u2581righteousness": 2801,
  "\u2581Solomon": 2802,
  "\u2581letter": 2803,
  "\u2581Bye": 2804,
  "\u2581St": 2805,
  "\u2581destroy": 2806,
  "\u2581named": 2807,
  "\u2581nh\u01b0\u1eddng": 2808,
  "\u2581dear": 2809,
  "\u2581gi\u01a1": 2810,
  "\u2581m\u1ec7nh": 2811,
  "ity": 2812,
  "\u2581members": 2813,
  "\u2581li\u1ec7t": 2814,
  "\u2581B\u00ean": 2815,
  "\u2581Tr\u00e1nh": 2816,
  "\u2581s\u00e1nh": 2817,
  "\u2581th\u1ea3m": 2818,
  "\u2581C\u00e1ch": 2819,
  "\u2581bom": 2820,
  "lem": 2821,
  "U": 2822,
  "\u2581t\u1ea3i": 2823,
  "\u2581De": 2824,
  "\u2581x\u00f3t": 2825,
  "\u2581l\u1ed7": 2826,
  "\u2581B\u1ea3o": 2827,
  "\u2581nh\u1eafn": 2828,
  "\u2581Li\u00ean": 2829,
  "\u258119": 2830,
  "\u2581J\u00easus": 2831,
  "\u2581h\u1ed7": 2832,
  "do": 2833,
  "\u2581shows": 2834,
  "\u2581ng\u1eafn": 2835,
  "\u2581choose": 2836,
  "\u2581cover": 2837,
  "\u2581matters": 2838,
  "\u2581Th\u00e1p": 2839,
  "\u2581ch\u00e1y": 2840,
  "\u2581powerful": 2841,
  "\u25817:": 2842,
  "\u2581Shut": 2843,
  "\u2581fell": 2844,
  "\u2581doubt": 2845,
  "\u2581lay": 2846,
  "\u2581speaking": 2847,
  "\u2581C\u1ee9u": 2848,
  "\u2581article": 2849,
  "by": 2850,
  "\u2581Charlie": 2851,
  "\u2581likely": 2852,
  "\u258112.": 2853,
  "\u2581trao": 2854,
  "\u2581Jacob": 2855,
  "\u2581ng\u1ee5c": 2856,
  "\u2581c\u00e3i": 2857,
  "\u2581si\u00eau": 2858,
  "\u2581scared": 2859,
  "\u2581s\u00f4": 2860,
  "\u25812,": 2861,
  "\u2581road": 2862,
  "\u2581calling": 2863,
  "\u2581nh\u1eb9": 2864,
  "\u2581showed": 2865,
  "im": 2866,
  "\u2581Alex": 2867,
  "\u2581San": 2868,
  "\u2581v\u01b0\u1eddn": 2869,
  "\u2581c\u01b0ng": 2870,
  "\u2581rich": 2871,
  "\u2581xinh": 2872,
  "\u2581Th\u1eddi": 2873,
  "\u258122": 2874,
  "\u2581v\u0129": 2875,
  "\u2581\u0111i\u1ec3n": 2876,
  "\u2581Their": 2877,
  "\u2581kim": 2878,
  "ia": 2879,
  "\u2581interest": 2880,
  "\u2581t\u1eb7ng": 2881,
  "\u2581\u2022": 2882,
  "\u2581forward": 2883,
  "\u2581playing": 2884,
  "\u2581th\u1ea5p": 2885,
  "\u2581worse": 2886,
  "\u2581Job": 2887,
  "\u2581red": 2888,
  "\u2581V\u1ea3": 2889,
  "\u2581gh\u00ea": 2890,
  "Ti\u1ebfng": 2891,
  "\u2581l\u00e0ng": 2892,
  "\u2581ng\u00e2n": 2893,
  "\u2581American": 2894,
  "\u2581\u2019.": 2895,
  "\u2581English": 2896,
  "\u2581Jo": 2897,
  "\u2581N\u01a1i": 2898,
  "\u2581nhi\u1ec5m": 2899,
  "v": 2900,
  "\u2581ch\u00f3ng": 2901,
  "\u2581simply": 2902,
  "\u2581wonder": 2903,
  "\u2581bear": 2904,
  "\u2581n\u00f4": 2905,
  "\u2581About": 2906,
  "\u2581shalt": 2907,
  "\u2581Any": 2908,
  "\u2581spend": 2909,
  "\u2581prove": 2910,
  "\u2581straight": 2911,
  "\u2581Bi\u1ebft": 2912,
  "\u2581ch\u0103n": 2913,
  "\u2581b\u1edd": 2914,
  "\u2581quickly": 2915,
  "\u258121": 2916,
  "\u2581carry": 2917,
  "\u2581shouldn": 2918,
  "\u2581truly": 2919,
  "\u2581feelings": 2920,
  "\u2581grow": 2921,
  "\u2581space": 2922,
  "\u2581S\u00e1ng": 2923,
  "\u2581h\u00e0m": 2924,
  "\u2581common": 2925,
  "\u2581hospital": 2926,
  "\u2022": 2927,
  "\u2581box": 2928,
  "\u2581evening": 2929,
  "\u2581Thi\u00ean": 2930,
  "\u2581ng\u1ea1i": 2931,
  "\u2581meetings": 2932,
  "\u2581T\u1edbi": 2933,
  "\u2581co": 2934,
  "\u2581instead": 2935,
  "\u25816.": 2936,
  "\u2581L\u1ea5y": 2937,
  "\u2581canh": 2938,
  "\u2581Claire": 2939,
  "\u2581b\u1ec1": 2940,
  "\u2581anyway": 2941,
  "de": 2942,
  "\u2581music": 2943,
  "\u2581\u0111am": 2944,
  "\u2581understanding": 2945,
  "il": 2946,
  "\u2581prophet": 2947,
  "\u2581thang": 2948,
  "\u2581t\u01b0\u1edbng": 2949,
  "t\u00f4": 2950,
  "\u2581Show": 2951,
  "\u2581standing": 2952,
  "\u2581witness": 2953,
  "\u2581Still": 2954,
  "\u2581wall": 2955,
  "\u2581V\u1eabn": 2956,
  "\u2581t\u00fac": 2957,
  "\u2581Ti\u1ebfp": 2958,
  "\u2581luck": 2959,
  "\u2581Al": 2960,
  "\u2581avoid": 2961,
  "\u2581phi\u00ean": 2962,
  "\u2581answered": 2963,
  "\u2581m\u01b0a": 2964,
  "\u2581catch": 2965,
  "\u2581S\u1ed1": 2966,
  "bi": 2967,
  "\u2581command": 2968,
  "\u2581heavenly": 2969,
  "go": 2970,
  "\u2581passed": 2971,
  "\u2581suffering": 2972,
  "\u2581date": 2973,
  "con": 2974,
  "\u2581ngh\u1ec1": 2975,
  "\u2581allow": 2976,
  "\u2581t\u00ed": 2977,
  "\u2581window": 2978,
  "\u258113:": 2979,
  "\u2581reach": 2980,
  "\u2581th\u1ee3": 2981,
  "\u2581Greek": 2982,
  "\u2581More": 2983,
  "\u2581realize": 2984,
  "\u2581W": 2985,
  "\u2581t\u00e2y": 2986,
  "\u258160": 2987,
  "\u2581glad": 2988,
  "\u2581ch\u1eb7n": 2989,
  "\u2581anybody": 2990,
  "\u2581boss": 2991,
  "\u2581thi\u00eau": 2992,
  "\u2581dinner": 2993,
  "\u2581Joe": 2994,
  "\u2581B\u00ea": 2995,
  "\u2581S\u1ee9": 2996,
  "\u2581thai": 2997,
  "\u2581khi\u1ebfp": 2998,
  "\u2581wine": 2999,
  "\u2581di\u1ec7u": 3000,
  "\u2581Fine": 3001,
  "\u2581Perhaps": 3002,
  "\u2581dangerous": 3003,
  "\u2581kh\u1ee9": 3004,
  "\u0110\u1ee9c": 3005,
  "\u258111.": 3006,
  "#224;": 3007,
  "\u2581n\u1ed7": 3008,
  "\u2581Open": 3009,
  "lo": 3010,
  "\u2581\u0110\u1ed1i": 3011,
  "\u2581C\u1ed1": 3012,
  "\u2581M\u1edf": 3013,
  "\u2581kindness": 3014,
  "\u2581type": 3015,
  "\u2581c\u1ea5u": 3016,
  "\u2581interested": 3017,
  "\u2581visit": 3018,
  "\u2581\u1ea4y": 3019,
  "\u2581K\u1ebft": 3020,
  "\u2581\u0110\u1ed3ng": 3021,
  "\u2581promised": 3022,
  "\u2581pull": 3023,
  "\u258114.": 3024,
  "\u2581TV": 3025,
  "\u2581kho": 3026,
  "kh\u00f4ng": 3027,
  "\u2581careful": 3028,
  "\u2581c\u1edd": 3029,
  "\u2581k\u1ecbch": 3030,
  "\u2581mu\u1ed9n": 3031,
  "\u2581t\u00e1n": 3032,
  "W": 3033,
  "\u2581Oliver": 3034,
  "\u2581created": 3035,
  "\u2581ph\u1ed1i": 3036,
  "\u2581judgment": 3037,
  "\u2581qu\u00ed": 3038,
  "\u2581cities": 3039,
  "\u2581Israelites": 3040,
  "\u25819.": 3041,
  "\u2581Kim": 3042,
  "\u2581c\u1ee5c": 3043,
  "\u2581Th\u00e0nh": 3044,
  "\u2581Joey": 3045,
  "\u2581g\u1ea5p": 3046,
  "\u2581bread": 3047,
  "\u2581tr\u00f9ng": 3048,
  "\u2581welcome": 3049,
  "\u2581spent": 3050,
  "\u2581false": 3051,
  "\u2581\u00d4": 3052,
  "\u2581till": 3053,
  "\u2581Whatever": 3054,
  "\u2581Ross": 3055,
  "\u2581States": 3056,
  "\u2581enemies": 3057,
  "\u2581o": 3058,
  "\u2581\u0110\u00f4i": 3059,
  "\u2581v\u1ed1n": 3060,
  "\u2581Damn": 3061,
  "\u2581Mm": 3062,
  "\u2581t\u01a1": 3063,
  "\u2581While": 3064,
  "\u2581n\u00e1t": 3065,
  "\u2581battle": 3066,
  "ry": 3067,
  "\u2581Mau": 3068,
  "\u258113.": 3069,
  "\u2581eight": 3070,
  "\u2581T\u1ef1": 3071,
  "\u2581train": 3072,
  "\u2581giam": 3073,
  "\u2581fault": 3074,
  "\u2581gods": 3075,
  "\u2581\u0111\u1ed1c": 3076,
  "\u2581Hi\u1ec7n": 3077,
  "\u2581k\u00e9m": 3078,
  "\u2581Nh\u1eadt": 3079,
  "\u2581Harry": 3080,
  "\u2581ng\u1ecdn": 3081,
  "\u2581religion": 3082,
  "\u2581nh\u1eb1m": 3083,
  "\u2581action": 3084,
  "\u2581willing": 3085,
  "\u2581sweet": 3086,
  "\u2581broken": 3087,
  "\u2581master": 3088,
  "son": 3089,
  "\u2581table": 3090,
  "\u2581Qu\u1ea3": 3091,
  "\u2581hu\u1ea5n": 3092,
  "\u2581n\u00e2ng": 3093,
  "\u2581books": 3094,
  "\u2581c\u1ee1": 3095,
  "\u2581h\u00e1": 3096,
  "\u2581\u1ed1ng": 3097,
  "\u2581\u0111\u00e0i": 3098,
  "\u2581appreciate": 3099,
  "\u2581street": 3100,
  "\u2581Paris": 3101,
  "\u2581tr\u1ec5": 3102,
  "\u2581Ph\u1ea7n": 3103,
  "\u2581m\u1ec1m": 3104,
  "\u2581ch\u00ea": 3105,
  "\u2581Most": 3106,
  "\u2581dark": 3107,
  "\u2581\u0111\u0103ng": 3108,
  "\u2581decision": 3109,
  "\u2581draw": 3110,
  "\u2581honey": 3111,
  "\u2581walking": 3112,
  "\u2581Bill": 3113,
  "\u2581Gi\u1eef": 3114,
  "\u2581seek": 3115,
  "\u2581god": 3116,
  "\u2581m\u0169i": 3117,
  "\u2581Sarah": 3118,
  "\u2581caught": 3119,
  "\u2581ride": 3120,
  "\u2581tr\u1ed1ng": 3121,
  "l\u00f4": 3122,
  "\u2581text": 3123,
  "\u2581including": 3124,
  "\u2581based": 3125,
  "\u2581America": 3126,
  "\u2581handle": 3127,
  "\u2581ph\u1ee9c": 3128,
  "\u2581provide": 3129,
  "\u2581Red": 3130,
  "\u2581d\u01b0\u01a1ng": 3131,
  "\u2581thi\u1ec7u": 3132,
  "\u2581Law": 3133,
  "\u2581create": 3134,
  "\u2581families": 3135,
  "\u2581R\u00f4": 3136,
  "\u2581held": 3137,
  "\u2581li\u1ec1n": 3138,
  "\u2581complete": 3139,
  "\u2581ho\u1ea1i": 3140,
  "\u2581doanh": 3141,
  "\u2581art": 3142,
  "\u2581x\u01b0\u01a1ng": 3143,
  "mi": 3144,
  "\u2581Although": 3145,
  "\u2581s\u00f3ng": 3146,
  "\u2581lying": 3147,
  "\u2581favor": 3148,
  "\u2581h\u1ea7m": 3149,
  "\u2581record": 3150,
  "ng\u01b0\u1eddi": 3151,
  "\u2581Quan": 3152,
  "\u2581somewhere": 3153,
  "\u2581Time": 3154,
  "\u2581Ti\u1ebfn": 3155,
  "\u2581d\u00edp": 3156,
  "\u2581program": 3157,
  "\u258117.": 3158,
  "\u258127": 3159,
  "\u2581behold": 3160,
  "\u2581g\u01b0\u01a1m": 3161,
  "\u2581Everyone": 3162,
  "\u2581opportunity": 3163,
  "\u2581\u0111\u1ed3n": 3164,
  "\u2581benefit": 3165,
  "ce": 3166,
  "\u2581beyond": 3167,
  "\u2581Rome": 3168,
  "ling": 3169,
  "4": 3170,
  "\u2581Ch\u1ea1y": 3171,
  "\u2581thua": 3172,
  "\u2581chu\u1ed9t": 3173,
  "\u2581m\u1ed9": 3174,
  "\u2581Nga": 3175,
  "\u2581interesting": 3176,
  "\u258115.": 3177,
  "\u2581Long": 3178,
  "\u2581c\u1ea5m": 3179,
  "\u2581\u0110\u1ea7u": 3180,
  "\u2581g\u00f3c": 3181,
  "\u2581b\u1eadc": 3182,
  "It": 3183,
  "\u2581hearts": 3184,
  "\u2581g\u1eafn": 3185,
  "\u2581oil": 3186,
  "\u2581watching": 3187,
  "\u2581l\u1ee5c": 3188,
  "\u2581normal": 3189,
  "\u2581c\u0103ng": 3190,
  "\u2581N\u00ea": 3191,
  "\u2581\u0110\u00f4ng": 3192,
  "\u2581\u0111\u1edbn": 3193,
  "J": 3194,
  "\u2581energy": 3195,
  "\u2581\u00e9p": 3196,
  "\u2581non": 3197,
  "\u2581\u1ea5m": 3198,
  "\u2581Revelation": 3199,
  "f": 3200,
  "ul": 3201,
  "\u2581n\u00f4ng": 3202,
  "\u2581tu": 3203,
  "\u2581Think": 3204,
  "V": 3205,
  "\u2581L\u1ec5": 3206,
  "\u2581Such": 3207,
  "\u2581l\u0129nh": 3208,
  "\u2581t\u00e1i": 3209,
  "\u2581h\u1ed1i": 3210,
  "\u2581m\u00f9": 3211,
  "\u2581dao": 3212,
  "\u2581Timothy": 3213,
  "ur": 3214,
  "\u258133": 3215,
  "\u2581Before": 3216,
  "\u258116.": 3217,
  "\u2581animals": 3218,
  "\u2581contact": 3219,
  "\u2581happiness": 3220,
  "\u2581middle": 3221,
  "\u2581temporary": 3222,
  "\u2581throw": 3223,
  "\u2581L\u00ea": 3224,
  "\u2581nh\u1ea7m": 3225,
  "\u2581M\u1eb7t": 3226,
  "ment": 3227,
  "\u2581\u00cdt": 3228,
  "\u2581Quay": 3229,
  "\u2581m\u1ea1ch": 3230,
  "\u2581Qu\u00e1": 3231,
  "\u2581led": 3232,
  "\u2581mi\u1ec1n": 3233,
  "as": 3234,
  "\u2581Max": 3235,
  "\u2581amazing": 3236,
  "\u2581b\u1ea7y": 3237,
  "\u2581covenant": 3238,
  "\u2581President": 3239,
  "\u2581S\u00ea": 3240,
  "\u2581Aaron": 3241,
  "\u2581giai": 3242,
  "\u2581gh\u1ebf": 3243,
  "\u2581m\u00ec": 3244,
  "\u2581killing": 3245,
  "\u2581greater": 3246,
  "\u2581b\u1ee5ng": 3247,
  "\u2581lan": 3248,
  "\u2581Proverbs": 3249,
  "\u2581conduct": 3250,
  "\u2581wedding": 3251,
  "\u2581Corinthians": 3252,
  "\u2581Say": 3253,
  "\u2581\u0111ua": 3254,
  "\u2581\u1ea4n": 3255,
  "\u2581fathers": 3256,
  "\u2581fish": 3257,
  "\u2581Th\u1ea7y": 3258,
  "\u2581\u00ea": 3259,
  "We": 3260,
  "\u25815,": 3261,
  "\u2581City": 3262,
  "\u2581C\u1ed5": 3263,
  "\u2581floor": 3264,
  "\u2581\u0110\u00e1ng": 3265,
  "Ch\u00fang": 3266,
  "\u2581gi\u1ecdng": 3267,
  "\u2581g\u00e1nh": 3268,
  "\u2581Nh\u1edd": 3269,
  "\u2581states": 3270,
  "\u2581th\u1ea9m": 3271,
  "\u2581v\u1eafng": 3272,
  "ies": 3273,
  "\u2581weren": 3274,
  "\u2581enemy": 3275,
  "\u2581indeed": 3276,
  "\u2581priests": 3277,
  "\u2581material": 3278,
  "\u2581r\u1eeda": 3279,
  "\u2581\u00ab": 3280,
  "\u2581Welcome": 3281,
  "\u2581bi\u00ean": 3282,
  "\u2581m\u00e3n": 3283,
  "\u2581returned": 3284,
  "\u2581available": 3285,
  "\u2581anger": 3286,
  "\u2581Bob": 3287,
  "\u2581computer": 3288,
  "\u2581church": 3289,
  "\u2581beat": 3290,
  "\u2581Mmm": 3291,
  "ting": 3292,
  "\u2581Nha": 3293,
  "\u2581effect": 3294,
  "Kh\u00f4ng": 3295,
  "\u2581boat": 3296,
  "\u2581c\u1ecf": 3297,
  "\u2581KDE": 3298,
  "\u2581Organiser": 3299,
  "\u2581thi\u1ec7t": 3300,
  "\u2581tung": 3301,
  "\u2581Babylon": 3302,
  "\u2581calls": 3303,
  "\u2581c\u1eafp": 3304,
  "\u2581\u0110\u1ed9": 3305,
  "\u2581H\u1ebft": 3306,
  "\u2581Someone": 3307,
  "\u2581baptized": 3308,
  "\u2581d\u1eb7m": 3309,
  "Other": 3310,
  "\u2581missing": 3311,
  "\u2581mistake": 3312,
  "\u2581join": 3313,
  "one": 3314,
  "\u2581tho\u1ea3i": 3315,
  "\u2581g\u00f3i": 3316,
  "\u2581mu\u00f4n": 3317,
  "\u2581begin": 3318,
  "\u2581meaning": 3319,
  "\u2581mi\u00eau": 3320,
  "\u00f4n": 3321,
  "\u2581clothes": 3322,
  "\u2581K\u1ec3": 3323,
  "\u2581ran": 3324,
  "\u2581mi\u1ebfng": 3325,
  "\u2581nobody": 3326,
  "\u2581camera": 3327,
  "Comment": 3328,
  "ty": 3329,
  "\u2581commanded": 3330,
  "\u2581nh\u01a1n": 3331,
  "\u2581busy": 3332,
  "\u2581b\u1eafc": 3333,
  "\u2581sitting": 3334,
  "\u2581soi": 3335,
  "\u2581thousands": 3336,
  "\u2581Three": 3337,
  "ist": 3338,
  "\u2581per": 3339,
  "ter": 3340,
  "\u2581similar": 3341,
  "\u2581kh\u00f4": 3342,
  "\u2581m\u1ea3nh": 3343,
  "\u2581v\u01b0\u01a1ng": 3344,
  "\u2581cell": 3345,
  "\u2581Once": 3346,
  "\u25818:": 3347,
  "\u2581th\u0103ng": 3348,
  "\u2581\u0111eo": 3349,
  "\u2581Chi\u1ebfn": 3350,
  "\u2581hide": 3351,
  "\u2581court": 3352,
  "\u2581C\u1ee7a": 3353,
  "\u2581G\u1ecdi": 3354,
  "\u2581d\u01b0": 3355,
  "\u2581names": 3356,
  "less": 3357,
  "\u2581drop": 3358,
  "gi\u1edd": 3359,
  "\u2581attitude": 3360,
  "\u2581Di": 3361,
  "\u2581nh\u1ea5n": 3362,
  "\u2581Call": 3363,
  "\u2581Gi\u00f3p": 3364,
  "\u2581destroyed": 3365,
  "\u2581students": 3366,
  "\u2581Another": 3367,
  "\u2581level": 3368,
  "\u2581Internet": 3369,
  "\u2581v\u1eb9n": 3370,
  "\u2581broke": 3371,
  "\u2581\u00e2": 3372,
  "\u258126": 3373,
  "\u2581k\u00edn": 3374,
  "\u2581Nobody": 3375,
  "\u2581l\u01b0\u1ee1i": 3376,
  "\u2581yourselves": 3377,
  "\u2581allowed": 3378,
  "rs": 3379,
  "\u2581sins": 3380,
  "\u2581Ch\u1ee7": 3381,
  "\u2581r\u0103n": 3382,
  "\u2581authority": 3383,
  "\u2581serving": 3384,
  "\u2581t\u1ec9": 3385,
  "\u2581organization": 3386,
  "\u2581stopped": 3387,
  "\u2581difference": 3388,
  "\u2581200": 3389,
  "\u2581final": 3390,
  "\u2581changes": 3391,
  "\u2581failed": 3392,
  "\u2581th\u1ebb": 3393,
  "ka": 3394,
  "\u2581kh\u1ea9n": 3395,
  "\u2581risk": 3396,
  "\u2581spoken": 3397,
  "\u2581helping": 3398,
  "\u2581Roman": 3399,
  "\u2581v\u1ea1n": 3400,
  "\u2581FBI": 3401,
  "\u2581M\u00f4": 3402,
  "\u2581r\u00e1c": 3403,
  "\u2581gi\u00e0y": 3404,
  "te": 3405,
  "\u2581wind": 3406,
  "\u2581Daddy": 3407,
  "\u2581Noah": 3408,
  "\u2581\u0111\u1ecbch": 3409,
  "\u2581sounds": 3410,
  "ate": 3411,
  "\u2581Ch\u00e2m": 3412,
  "\u2581Robert": 3413,
  "\u2581search": 3414,
  "men": 3415,
  "\u2581heavens": 3416,
  "\u2581angel": 3417,
  "\u2581g\u00e0": 3418,
  "\u2581physical": 3419,
  "\u2581pleasure": 3420,
  "\u2581\u0111\u00e2m": 3421,
  "\u2581foot": 3422,
  "\u2581ninh": 3423,
  "\u2581justice": 3424,
  "\u2581stood": 3425,
  "\u2581N\u1ea7y": 3426,
  "\u2581Love": 3427,
  "\u2581]": 3428,
  "\u2581ch\u00f4n": 3429,
  "\u25814,": 3430,
  "\u2581murder": 3431,
  "\u2581\u0111\u1ebf": 3432,
  "\u2581round": 3433,
  "\u2581low": 3434,
  "\u2581Back": 3435,
  "\u2581machine": 3436,
  "\u2581agree": 3437,
  "\u2581address": 3438,
  "\u2581\u0110\u1ea5t": 3439,
  "\u2581dance": 3440,
  "\u2581data": 3441,
  "\u2581cast": 3442,
  "\u2581deliver": 3443,
  "\u2581London": 3444,
  "\u2581mercy": 3445,
  "\u2581Th\u00f4ng": 3446,
  "\u2581slave": 3447,
  "\u2581B\u1ea5y": 3448,
  "\u2581chief": 3449,
  "\u2581issue": 3450,
  "\u2581fully": 3451,
  "\u2581quick": 3452,
  "\u2581freedom": 3453,
  "\u2581lucky": 3454,
  "\u2581Th\u01b0\u1ee3ng": 3455,
  "\u2581Should": 3456,
  "\u2581training": 3457,
  "5": 3458,
  "\u2581finish": 3459,
  "\u2581\u00fay": 3460,
  "\u2581mentioned": 3461,
  "\u2581cry": 3462,
  "\u2581natural": 3463,
  "\u2581paid": 3464,
  "\u2581escape": 3465,
  "\u2581ch\u00eca": 3466,
  "\u2581everlasting": 3467,
  "\u2581forgive": 3468,
  "\u2581m\u1ed3": 3469,
  "\u2581unit": 3470,
  "ine": 3471,
  "\u2581Danny": 3472,
  "\u2581YOU": 3473,
  "\u2581immediately": 3474,
  "\u2581nature": 3475,
  "\u258170": 3476,
  "\u2581l\u00e3ng": 3477,
  "\u2581Mother": 3478,
  "\u2581older": 3479,
  "\u25819,": 3480,
  "\u2581enter": 3481,
  "\u2581followed": 3482,
  "\u2581Tr\u00ecnh": 3483,
  "\u2581silver": 3484,
  "\u2581sake": 3485,
  "\u2581ho\u1ea1n": 3486,
  "\u2581nho": 3487,
  "\u2581kings": 3488,
  "\u2581rinh": 3489,
  "m\u00f4n": 3490,
  "\u2581parts": 3491,
  "Applause": 3492,
  "\u2581ch\u00e2u": 3493,
  "\u2581lord": 3494,
  "\u2581patient": 3495,
  "\u2581bag": 3496,
  "\u2581fighting": 3497,
  "\u2581tells": 3498,
  "\u2581Hi\u1ec3u": 3499,
  "\u2581h\u00f2n": 3500,
  "\u2581d\u1ecbp": 3501,
  "\u2581weird": 3502,
  "\u2581charge": 3503,
  "\u2581talked": 3504,
  "\u2581Jimmy": 3505,
  "\u2581ph\u1ecfng": 3506,
  "he": 3507,
  "\u258123": 3508,
  "\u2581t\u1ed1n": 3509,
  "\u258115:": 3510,
  "\u2581r\u0103ng": 3511,
  "\u2581\u0110\u1ecba": 3512,
  "\u2581horse": 3513,
  "\u2581kidding": 3514,
  "\u2581Mexico": 3515,
  "\u2581Queen": 3516,
  "\u2581terrible": 3517,
  "\u2581M\u00e1y": 3518,
  "\u2581quy\u1ec3n": 3519,
  "\u2581V\u1ea5n": 3520,
  "\u2581offered": 3521,
  "\u2581phu": 3522,
  "\u2581saith": 3523,
  "hi": 3524,
  "\u2581Lan": 3525,
  "\u2581b\u1eaby": 3526,
  "\u25aa": 3527,
  "\u25816,": 3528,
  "\u2581Im": 3529,
  "\u2581fly": 3530,
  "\u2581Consider": 3531,
  "\u2581Romans": 3532,
  "\u2581t\u1eadt": 3533,
  "\u2581Hall": 3534,
  "\u2581T\u1eadp": 3535,
  "\u2581judge": 3536,
  "\u2581kh\u1ed1i": 3537,
  "\u2581mail": 3538,
  "\u2581d": 3539,
  "tin": 3540,
  "\u2581b\u1ee5i": 3541,
  "\u2581South": 3542,
  "\u2581countries": 3543,
  "\u2581earlier": 3544,
  "\u2581quiet": 3545,
  "\u2581t\u00e1ch": 3546,
  "h\u1eafc": 3547,
  "cause": 3548,
  "\u2581Leave": 3549,
  "\u2581v\u00ea": 3550,
  "\u2581Th\u01b0": 3551,
  "\u2581Acts": 3552,
  "\u2581coffee": 3553,
  "\u2581raised": 3554,
  "\u2581rules": 3555,
  "\u2581t\u00e1m": 3556,
  "\u258128": 3557,
  "\u2581Actually": 3558,
  "\u2581H\u00f3a": 3559,
  "\u2581%1": 3560,
  "cha": 3561,
  "\u2581Samuel": 3562,
  "\u2581served": 3563,
  "\u2581\u1ed4ng": 3564,
  "\u2581C\u01a1": 3565,
  "\u2581filled": 3566,
  "\u2581b\u1ec1n": 3567,
  "\u2581Joshua": 3568,
  "\u2581clearly": 3569,
  "ian": 3570,
  "\u2581keeping": 3571,
  "\u2581several": 3572,
  "\u2581\u00c2u": 3573,
  "\u2581\u0111\u00e3i": 3574,
  "\u2581size": 3575,
  "\u2581stick": 3576,
  "\u258115,": 3577,
  "\u2581Matt": 3578,
  "\u2581noi": 3579,
  "\u2581planet": 3580,
  "\u2581direction": 3581,
  "\u2581M\u1ee5c": 3582,
  "\u2581blue": 3583,
  "\u2581gain": 3584,
  "\u2581ice": 3585,
  "\u2581greatest": 3586,
  "\u2581khoan": 3587,
  "\u2581Ok": 3588,
  "\u2581ho": 3589,
  "\u2581ph\u1eabu": 3590,
  "l\u00e0m": 3591,
  "\u2581\u0111\u1ee5ng": 3592,
  "\u25819:": 3593,
  "\u2581th\u1ed5i": 3594,
  "\u2581tr\u00e0n": 3595,
  "\u2581necessary": 3596,
  "\u2581divine": 3597,
  "\u2581thoughts": 3598,
  "mo": 3599,
  "\u2581count": 3600,
  "\u2581oh": 3601,
  "\u2581r\u1eafn": 3602,
  "\u2581ability": 3603,
  "\u2581Henry": 3604,
  "\u2581phi\u1ebfu": 3605,
  "\u2581process": 3606,
  "\u2581paper": 3607,
  "\u2581Watchtower": 3608,
  "\u2581sell": 3609,
  "\u2581Dan": 3610,
  "\u2581Everybody": 3611,
  "\u2581\u0111\u1ec9nh": 3612,
  "\u2581arm": 3613,
  "\u2581Th\u00eam": 3614,
  "\u2581crime": 3615,
  "\u2581tired": 3616,
  "all": 3617,
  "\u2581finished": 3618,
  "\u2581\u0111\u1ef1c": 3619,
  "\u2581learning": 3620,
  "\u2581caused": 3621,
  "\u2581s\u1ea1n": 3622,
  "\u2581Big": 3623,
  "\u2581kh\u00e1t": 3624,
  "\u2581xu": 3625,
  "\u2581According": 3626,
  "\u2581War": 3627,
  "\u2581General": 3628,
  "\u2581Un": 3629,
  "\u2581\u1ea3o": 3630,
  "\u2581advice": 3631,
  "\u2581plane": 3632,
  "\u2581prepared": 3633,
  "\u2581seconds": 3634,
  "\u2581t\u1ef7": 3635,
  "\u2581mad": 3636,
  "\",": 3637,
  "\u25810": 3638,
  "\u2581followers": 3639,
  "\u2581Hurry": 3640,
  "\u2581Kh\u1ea3i": 3641,
  "\u2581White": 3642,
  "\u2581putting": 3643,
  "\u25812.": 3644,
  "\u2581universe": 3645,
  "out": 3646,
  "\u2581ti": 3647,
  "\u2581dollars": 3648,
  "\u2581source": 3649,
  "\u2581spread": 3650,
  "\u2581tuy\u1ebfn": 3651,
  "\u2581river": 3652,
  "ish": 3653,
  "\u2581h": 3654,
  "\u2581wear": 3655,
  "\u2581blow": 3656,
  "\u2581birth": 3657,
  "\u2581proud": 3658,
  "\u2581Ch\u00e0": 3659,
  "\u2581guard": 3660,
  "\u2581m\u1ea1c": 3661,
  "ive": 3662,
  "\u2581G\u1eb7p": 3663,
  "\u2581ex": 3664,
  "\u2581\u00d0o\u1ea1n": 3665,
  "\u2581Isn": 3666,
  "\u2581Nh\u1edb": 3667,
  "\u2581swear": 3668,
  "\u258114:": 3669,
  "\u2581slow": 3670,
  "\u2581dying": 3671,
  "\u2581Lee": 3672,
  "\u2581L\u1ea1y": 3673,
  "\u2581calm": 3674,
  "\u2581d\u01b0\u1ee1ng": 3675,
  "\u2581nh\u00e1nh": 3676,
  "\u2581Ng\u1ed3i": 3677,
  "un": 3678,
  "\u2581worried": 3679,
  "\u2581Life": 3680,
  "\u2581ho\u1ea3ng": 3681,
  "He": 3682,
  "\u2581anywhere": 3683,
  "\u2581mountain": 3684,
  "\u2581opened": 3685,
  "\u2581Devil": 3686,
  "\u2581marry": 3687,
  "\u2581modern": 3688,
  "\u2581th": 3689,
  "\u2581mission": 3690,
  "\u2581h\u00f2": 3691,
  "\u2581t\u00e0": 3692,
  "\u2581comfort": 3693,
  "\u2581t\u00f3m": 3694,
  "\u2581period": 3695,
  "r\u01a1": 3696,
  "\u2581B\u1ecb": 3697,
  "\u2581fruit": 3698,
  "\u2581sisters": 3699,
  "\u2581individuals": 3700,
  "\u2581Brother": 3701,
  "\u2581b\u00e3i": 3702,
  "\u2581ga": 3703,
  "\u2581m\u1ecfi": 3704,
  "\u2581Bao": 3705,
  "\u2581Hebrew": 3706,
  "\u2581answers": 3707,
  "\u2581El": 3708,
  "\u2581memory": 3709,
  "\u2581b\u00f4ng": 3710,
  "\u2581resurrection": 3711,
  "ham": 3712,
  "ism": 3713,
  "\u2581fix": 3714,
  "\u2581Creator": 3715,
  "\u2581general": 3716,
  "\u2581cam": 3717,
  "\u2581Up": 3718,
  "\u2581president": 3719,
  "\u2581l\u00f9ng": 3720,
  "\u2581rock": 3721,
  "\u2581maintain": 3722,
  "\u2581Out": 3723,
  "\u2581principles": 3724,
  "\u2581v\u1ea7y": 3725,
  "\u2581\u00bb": 3726,
  "\u2581code": 3727,
  "\u2581l\u00f4i": 3728,
  "\u2581Behold": 3729,
  "\u2581Has": 3730,
  "\u2581usually": 3731,
  "\u2581ph\u1ed5": 3732,
  "\u2581Charles": 3733,
  "\u2581L\u00ean": 3734,
  "\u2581huynh": 3735,
  "\u2581m\u00e1t": 3736,
  "\u2581\u00f4n": 3737,
  "\u2581events": 3738,
  "\u2581Evolution": 3739,
  "\u2581animal": 3740,
  "\u2581pressure": 3741,
  "\u2581Bring": 3742,
  "\u2581survive": 3743,
  "\u2581tr\u01b0a": 3744,
  "\u2581x\u00e2m": 3745,
  "\u2581K\u1ebf": 3746,
  "\u2581north": 3747,
  "\u2581Gi\u00fap": 3748,
  "\u2581Linh": 3749,
  "\u2581circumstances": 3750,
  "\u2581mate": 3751,
  "\u2581science": 3752,
  "\u2581H\u1ea3": 3753,
  "\u2581effort": 3754,
  "\u2581knowing": 3755,
  "\u2581responsibility": 3756,
  "\u2581strange": 3757,
  "\u2581\u01b0u": 3758,
  "\u2581cost": 3759,
  "\u2581treo": 3760,
  "\u2581prophecy": 3761,
  "\u2581social": 3762,
  "\u2581Anna": 3763,
  "\u2581N\u00f4": 3764,
  "\u2581k\u1ecbp": 3765,
  "\u2581writing": 3766,
  "\u2581angry": 3767,
  "\u2581camp": 3768,
  "\u2581Tr\u01b0\u1eddng": 3769,
  "\u2581skin": 3770,
  "\u2581teacher": 3771,
  "\u2581access": 3772,
  "\u2581ch\u01b0": 3773,
  "\u2581bu\u00f4n": 3774,
  "\u2581speech": 3775,
  "\u2581throughout": 3776,
  "\u2581closer": 3777,
  "\u2581Barry": 3778,
  "\u258118.": 3779,
  "\u2581Ray": 3780,
  "\u2581hu\u1ed1ng": 3781,
  "\u2581gate": 3782,
  "um": 3783,
  "\u2581l\u00ea": 3784,
  "we": 3785,
  "\u2581blind": 3786,
  "\u2581l\u00f4n": 3787,
  "\u2581ng\u00f3n": 3788,
  "\u2581price": 3789,
  "\u2581T\u01b0\u01a1ng": 3790,
  "\u2581card": 3791,
  "\u2581danger": 3792,
  "ar": 3793,
  "\u2581ki\u00eau": 3794,
  "\u2581race": 3795,
  "\u2581condition": 3796,
  "\u2581listening": 3797,
  "\u2581x\u00f3a": 3798,
  "J\u00easus": 3799,
  "v\u00edt": 3800,
  "\u2581H\u00e0ng": 3801,
  "\u2581presence": 3802,
  "\u2581\u0110\u01b0\u1eddng": 3803,
  "\u2581believed": 3804,
  "\u2581wake": 3805,
  "\u2581Jewish": 3806,
  "\u2581practice": 3807,
  "\u2581Emily": 3808,
  "\u2581H\u1ecdc": 3809,
  "ted": 3810,
  "\u2581Li": 3811,
  "\u2581suppose": 3812,
  "\u2581\u01b0a": 3813,
  "\u2581Sometimes": 3814,
  "\u2581seat": 3815,
  "\u258129": 3816,
  "\u2581r\u1ed7i": 3817,
  "et": 3818,
  "\u2581Run": 3819,
  "\u2581equal": 3820,
  "\u2581l\u00e1t": 3821,
  "\u2581millions": 3822,
  "\u2581tr\u00edch": 3823,
  "\u2581inspired": 3824,
  "\u2581ung": 3825,
  "\u2581mu\u00f4": 3826,
  "\u2581n\u00fat": 3827,
  "\u2581Africa": 3828,
  "\u2581Try": 3829,
  "age": 3830,
  "\u2581Da": 3831,
  "\u2581totally": 3832,
  "\u2581Next": 3833,
  "\u258117:": 3834,
  "\u2581Black": 3835,
  "\u2581reasons": 3836,
  "\u2581t\u00fay": 3837,
  "\u2581\u0111\u1ea1p": 3838,
  "\u2581notice": 3839,
  "\u2581seed": 3840,
  "\u2581confidence": 3841,
  "\u2581impossible": 3842,
  "\u2581p": 3843,
  "\u2581path": 3844,
  "\u2581violence": 3845,
  "\u2581\u0110\u1ed9i": 3846,
  "\u258137": 3847,
  "\u2581apostles": 3848,
  "\u2581ch\u1ee7ng": 3849,
  "\u2581G\u1ea7n": 3850,
  "\u2581numbers": 3851,
  "\u2581qu\u00ea": 3852,
  "hmm": 3853,
  "\u2581Jordan": 3854,
  "\u2581Yo": 3855,
  "\u2581bank": 3856,
  "\u2581ideas": 3857,
  "\u2581radio": 3858,
  "\u2581praise": 3859,
  "\u2581\u00e1": 3860,
  "\u258110,": 3861,
  "\u25818,": 3862,
  "\u2581C\u1ea9n": 3863,
  "\u2581g\u00ecn": 3864,
  "\u2581stone": 3865,
  "\u2581\u1ea3": 3866,
  "\u2581Th\u1eadm": 3867,
  "\u2581lang": 3868,
  "\u2581recognize": 3869,
  "\u2581web": 3870,
  "\u2581V\u1ee3": 3871,
  "h\u1ec9nh": 3872,
  "\u2581provided": 3873,
  "\u2581ch\u00edn": 3874,
  "\u2581Martin": 3875,
  "\u2581subject": 3876,
  "\u2581B\u1eafn": 3877,
  "\u2581holding": 3878,
  "\u2581l\u1ed3": 3879,
  "\u2581tr\u1ea7n": 3880,
  "\u258120.": 3881,
  "\u2581fair": 3882,
  "\u2581pure": 3883,
  "No": 3884,
  "\u2581major": 3885,
  "\u2581eating": 3886,
  "\u2581huge": 3887,
  "\u2581m\u1ea7y": 3888,
  "\u2581l\u1ed9n": 3889,
  "\u2581precious": 3890,
  "\u2581smart": 3891,
  "\u2581vision": 3892,
  "\u2581feels": 3893,
  "\u2581blessing": 3894,
  "\u2581Monica": 3895,
  "\u2581crowd": 3896,
  "\u2581seemed": 3897,
  "\u2581store": 3898,
  "\u2581D\u00f9ng": 3899,
  "\u2581trees": 3900,
  "\u2581V\u00e0i": 3901,
  "\u2581kh\u1ec9": 3902,
  "ke": 3903,
  "\u2581laid": 3904,
  "\u2581considered": 3905,
  "\u2581\u0111\u1eddn": 3906,
  "\u2581b\u00e3o": 3907,
  "\u2581Alice": 3908,
  "\u2581Turn": 3909,
  "\u2581k": 3910,
  "\u2581birthday": 3911,
  "\u2581honest": 3912,
  "\u2581weapons": 3913,
  "\u2581d\u0129": 3914,
  "\u2581angels": 3915,
  "\u2581lies": 3916,
  "\u2581research": 3917,
  "\u2581green": 3918,
  "\u2581walked": 3919,
  "\u2581pages": 3920,
  "\u2581salvation": 3921,
  "\u2581\u0111i\u00ea": 3922,
  "\u2581destruction": 3923,
  "\u2581model": 3924,
  "\u25817,": 3925,
  "\u2581To\u00e0n": 3926,
  "di": 3927,
  "\u2581TO": 3928,
  "\u2581fat": 3929,
  "\u2581showing": 3930,
  "\u2581apply": 3931,
  "\u2581arrived": 3932,
  "\u2581tr\u0103ng": 3933,
  "old": 3934,
  "\u258180": 3935,
  "\u2581blessed": 3936,
  "\u2581ring": 3937,
  "\u2581r\u1ed3": 3938,
  "\u2581dwell": 3939,
  "\u2581realized": 3940,
  "\u2581military": 3941,
  "\u2581whoa": 3942,
  "\u2581burn": 3943,
  "\u2581Ru": 3944,
  "Cause": 3945,
  "\u2581m\u00f3c": 3946,
  "\u258132": 3947,
  "\u2581Ngu\u1ed3n": 3948,
  "\u2581delivered": 3949,
  "\u2581th\u1ee5": 3950,
  "\u2581c\u1ee7": 3951,
  "\u2581l\u1ea1y": 3952,
  "\u2581s\u1eafng": 3953,
  "\u2581b\u1ea9n": 3954,
  "\u2581appointed": 3955,
  "\u2581missed": 3956,
  "\u2581ng\u00e0nh": 3957,
  "\u2581300": 3958,
  "\u2581buddy": 3959,
  "r\u00f4n": 3960,
  "\u2581T\u1ee5": 3961,
  "\u2581medical": 3962,
  "\u2581chosen": 3963,
  "\u2581trip": 3964,
  "so": 3965,
  "\u2581shown": 3966,
  "of": 3967,
  "\u258131": 3968,
  "\u2581th\u00f3i": 3969,
  "\u2581tr\u00f2n": 3970,
  "\u2581Carl": 3971,
  "bo": 3972,
  "\u2581gentlemen": 3973,
  "\u2581cop": 3974,
  "\u2581c\u00fa": 3975,
  "\u2581disease": 3976,
  "\u2581n\u0103n": 3977,
  "\u2581tr\u00fac": 3978,
  "\u2581waste": 3979,
  "\u2581\u0111\u1eadu": 3980,
  "\u2581loves": 3981,
  "\u2581n\u1ea5u": 3982,
  "\u2581pha": 3983,
  "\u2581unless": 3984,
  "\u2581mighty": 3985,
  "\u2581thu\u1ebf": 3986,
  "\u2581Genesis": 3987,
  "\u2581bought": 3988,
  "\u2581m\u00f4ng": 3989,
  "\u2581th\u00f9ng": 3990,
  "\u258145": 3991,
  "\u2581nh\u1ecbn": 3992,
  "\u2581nha": 3993,
  "\u2581Ch\u1edb": 3994,
  "\u2581b\u01a1i": 3995,
  "ber": 3996,
  "\u2581500": 3997,
  "\u2581khu\u00f4n": 3998,
  "\u2581\u0111\u1ed3i": 3999,
  "\u2581North": 4000,
  "\u2581hast": 4001,
  "\u2581Looks": 4002,
  "\u2581v\u0129nh": 4003,
  "\u2581tongue": 4004,
  "ent": 4005,
  "\u2581u": 4006,
  "\u2581except": 4007,
  "\u2581fool": 4008,
  "\u2581helps": 4009,
  "\u2581Last": 4010,
  "\u2581ch\u01a1n": 4011,
  "\u2581c\u1ed5ng": 4012,
  "\u2581C\u00f9ng": 4013,
  "\u2581Instead": 4014,
  "\u2581Rather": 4015,
  "anh": 4016,
  "\u2581French": 4017,
  "\u2581copy": 4018,
  "at": 4019,
  "\u2581midst": 4020,
  "\u2581regular": 4021,
  "\u2581Chu\u1ea9n": 4022,
  "\u2581Dave": 4023,
  "\u2581hungry": 4024,
  "\u2581\u0110\u1ee7": 4025,
  "\u2581Jane": 4026,
  "\u2581sky": 4027,
  "\u2581Bo": 4028,
  "l\u01a1": 4029,
  "\u00b7": 4030,
  "\u2581bringing": 4031,
  "\u2581Th\u00ed": 4032,
  "\u2581loyal": 4033,
  "\u2581r\u00ea": 4034,
  "\u2581brings": 4035,
  "\u2581s\u1eaft": 4036,
  "\u2581b\u00f4": 4037,
  "\u2581m\u1ea1o": 4038,
  "me": 4039,
  "\u2581quang": 4040,
  "\u2581t\u01b0\u01a1i": 4041,
  "\u2581Chi": 4042,
  "\u2581Nick": 4043,
  "\u2581focus": 4044,
  "\u2581g\u1ee3i": 4045,
  "sh": 4046,
  "\u2581ghen": 4047,
  "\u2581Eve": 4048,
  "\u2581positive": 4049,
  "\u2581south": 4050,
  "\u2581x\u00ea": 4051,
  "\u2581\u0110\u1eb7c": 4052,
  "If": 4053,
  "\u2581Check": 4054,
  "\u2581empty": 4055,
  "\u2581Chandler": 4056,
  "\u2581surely": 4057,
  "Do": 4058,
  "\u2581sad": 4059,
  "\u2581starting": 4060,
  ":%": 4061,
  "th\u1ea3y": 4062,
  "\u2581kiss": 4063,
  "\u2581k\u00ed": 4064,
  "\u2581v\u1ed9i": 4065,
  "\u2581\u0102n": 4066,
  "\u2581village": 4067,
  "\u2581Su": 4068,
  "\u2581Tr\u1ea3": 4069,
  "\u2581results": 4070,
  "\u2581island": 4071,
  "\u2581raise": 4072,
  "\u2581v\u00e2y": 4073,
  "\u2581waters": 4074,
  "\u2581tr\u00f4i": 4075,
  "m\u1ed9t": 4076,
  "\u2581m\u1ea1i": 4077,
  "\u2581S\u1eb5n": 4078,
  "\u2581accident": 4079,
  "\u2581examples": 4080,
  "\u2581C\u1ea7n": 4081,
  "\u2581Gi\u1ebft": 4082,
  "\u2581aware": 4083,
  "\u2581Indeed": 4084,
  "\u2581stories": 4085,
  "\u2581sung": 4086,
  "\u2581proper": 4087,
  "you": 4088,
  "\u2581m\u00e8o": 4089,
  "\u2581r\u1ed1t": 4090,
  "\u2581During": 4091,
  "\u2581kh\u1ed5ng": 4092,
  "\u2581concern": 4093,
  "\u2581Christmas": 4094,
  "\u2581decide": 4095,
  "\u2581chai": 4096,
  "ko": 4097,
  "\u2581altar": 4098,
  "\u2581kh\u00eda": 4099,
  "\u2581l\u00f4ng": 4100,
  "\u2581suffer": 4101,
  "\u2581N\u00e8": 4102,
  "\u2581Ooh": 4103,
  "\u2581wild": 4104,
  "\u2581due": 4105,
  "\u2581Jeremiah": 4106,
  "\u2581prayers": 4107,
  "\u2581private": 4108,
  "\u2581education": 4109,
  "bu": 4110,
  "\u2581heads": 4111,
  "\u2581partner": 4112,
  "\u2581station": 4113,
  "\u2581Synchronis": 4114,
  "\u0111\u1ebfn": 4115,
  "\u2581True": 4116,
  "\u2581smell": 4117,
  "\u2581treat": 4118,
  "C\u01b0\u1eddi": 4119,
  "\u2581ok": 4120,
  "\u2581k\u1eb9t": 4121,
  "\u2581darkness": 4122,
  "\u2581\u0111\u1ebfm": 4123,
  "\u2581b\u00e1u": 4124,
  "Con": 4125,
  "\u2581Kho\u1ea3ng": 4126,
  "\u2581g\u1ed7": 4127,
  "\u2581ng\u01a1i": 4128,
  "\u2581Li\u1ec7u": 4129,
  "\u2581ya": 4130,
  "\u2581surprise": 4131,
  "\u2581laws": 4132,
  "\u2581n\u1ecd": 4133,
  "\u2581points": 4134,
  "\u2581political": 4135,
  "\u2581role": 4136,
  "\u2581cancer": 4137,
  "\u2581g\u1ee1": 4138,
  "ki": 4139,
  "\u2581II": 4140,
  "\u2581th\u00e8m": 4141,
  "\u2581wearing": 4142,
  "l\u1ec5": 4143,
  "\u2581Hebrews": 4144,
  "\u2581original": 4145,
  "\u2581Thanh": 4146,
  "\u2581c\u01b0\u01a1ng": 4147,
  "r\u00ea": 4148,
  "\u2581activity": 4149,
  "\u258119.": 4150,
  "\u2581gi\u00e1ng": 4151,
  "\u2581hearing": 4152,
  "\u2581hasn": 4153,
  "\u2581l\u01b0\u1edbi": 4154,
  "\u2581pieces": 4155,
  "\u2581b\u1ed1i": 4156,
  "\u2581challenge": 4157,
  "\u2581sat": 4158,
  "\u2581lui": 4159,
  "\u2581n\u1ed9p": 4160,
  "ating": 4161,
  "\u2581\u0111o": 4162,
  "\u2581\u1ed4n": 4163,
  "\u2581instance": 4164,
  "\u2581invited": 4165,
  "\u2581r\u1ee7a": 4166,
  "\u2581b\u00ea": 4167,
  "\u2581b\u1ea5y": 4168,
  "\u2581nine": 4169,
  "\u2581particular": 4170,
  "\u2581Sit": 4171,
  "\u2581cross": 4172,
  "time": 4173,
  "\u2581d\u1eb7n": 4174,
  "\u2581th\u00e1m": 4175,
  "\u2581turns": 4176,
  "chi": 4177,
  "\u2581d\u00f2": 4178,
  "C\u00f3": 4179,
  "\u2581concerning": 4180,
  "\u2581speed": 4181,
  "\u2581mu": 4182,
  "\u2581\u0111i\u1ec7u": 4183,
  "ran": 4184,
  "\u2581c\u1ed9t": 4185,
  "\u2581Young": 4186,
  "\u2581conversation": 4187,
  "\u2581herself": 4188,
  "\u2581scene": 4189,
  "\u2581bodies": 4190,
  "\u2581fit": 4191,
  "\u2581pre": 4192,
  "\u2581qualities": 4193,
  "\u2581rain": 4194,
  "\u2581\u0110\u00e1nh": 4195,
  "\u2581decisions": 4196,
  "\u2581lack": 4197,
  "\u2581apart": 4198,
  "\u2581d\u1ea1i": 4199,
  "\u2581press": 4200,
  "\u2581technology": 4201,
  "ary": 4202,
  "line": 4203,
  "\u2581c\u00e0i": 4204,
  "\u2581li\u1ec1u": 4205,
  "\u2581t\u01b0\u1edbc": 4206,
  "\u2581bi\u1ec7n": 4207,
  "\u2581bus": 4208,
  "\u2581\u0111u\u1ed1i": 4209,
  "min": 4210,
  "\u2581Nathan": 4211,
  "\u2581ah": 4212,
  "\u2581Chinese": 4213,
  "\u2581amount": 4214,
  "\u2581spiritually": 4215,
  "\u2581gathered": 4216,
  "\u2581ball": 4217,
  "\u2581Footnote": 4218,
  "Ta": 4219,
  "ler": 4220,
  "c\u00f3": 4221,
  "\u2581b\u1ebfp": 4222,
  "\u2581\u00f3c": 4223,
  "que": 4224,
  "\u2581warning": 4225,
  "\u2581Sara": 4226,
  "\u2581Kh\u00e1": 4227,
  "\u2581kh\u00e1ng": 4228,
  "\u258135": 4229,
  "\u2581accepted": 4230,
  "\u2581apartment": 4231,
  "\u2581m\u00e2y": 4232,
  "\u2581h\u00e0": 4233,
  "\u2581ng\u1ef1c": 4234,
  "ful": 4235,
  "\u2581tho\u1ea3ng": 4236,
  "\u2581daughters": 4237,
  "\u2581negative": 4238,
  "\u2581th\u00e1c": 4239,
  "\u2581fail": 4240,
  "\u2581warm": 4241,
  "\u2581Thomas": 4242,
  "\u2581gan": 4243,
  "\u2581grew": 4244,
  "\u2581th\u01b0\u1edbc": 4245,
  "\u2581Anything": 4246,
  "\u2581society": 4247,
  "\u2581individual": 4248,
  "\u2581Richard": 4249,
  "\u2581meat": 4250,
  "\u2581Didn": 4251,
  "\u2581t\u1ea1": 4252,
  "\u2581innocent": 4253,
  "\u2581mess": 4254,
  "\u2581Ch\u1ecdn": 4255,
  "\u2581M\u1edbi": 4256,
  "\u2581ch": 4257,
  "\u2581journey": 4258,
  "\u2581throne": 4259,
  "ous": 4260,
  "\u2581dress": 4261,
  "\u2581minister": 4262,
  "\u2581Pharaoh": 4263,
  "ial": 4264,
  "\u2581carried": 4265,
  "\u2581S\u00e1ch": 4266,
  "\u2581arms": 4267,
  "\u2581h\u1ecfa": 4268,
  "\u2581\u1ea2nh": 4269,
  "\u2581responsible": 4270,
  "\u2581West": 4271,
  "\u2581m\u1ecdc": 4272,
  "\u2581Steve": 4273,
  "\u2581c\u00f3c": 4274,
  "\u2581l\u1ecdc": 4275,
  "ner": 4276,
  "\u2581V\u00ed": 4277,
  "\u2581steal": 4278,
  "\u2581khi\u00eau": 4279,
  "\u258121:": 4280,
  "\u2581n\u01b0": 4281,
  "\u2581Eddie": 4282,
  "\u2581Find": 4283,
  "\u2581Tony": 4284,
  "\u2581Jake": 4285,
  "\u2581Little": 4286,
  "\u2581former": 4287,
  "\u2581Tommy": 4288,
  "\u2581nh\u1eafm": 4289,
  "\u2581sing": 4290,
  "...\"": 4291,
  "\u258190": 4292,
  "\u2581g\u00e1c": 4293,
  "\u2581lands": 4294,
  "\u2581Sinh": 4295,
  "ho": 4296,
  "tic": 4297,
  "\u2581l\u1eb7p": 4298,
  "\u2581everywhere": 4299,
  "\u2581movie": 4300,
  "\u2581ng\u1ecdt": 4301,
  "\u2581Vui": 4302,
  "\u2581base": 4303,
  "\u2581g\u1edbm": 4304,
  "\u2581h\u1ed3ng": 4305,
  "\u2581Organisation": 4306,
  "\u2581bia": 4307,
  "\u2581owe": 4308,
  "\u2581exist": 4309,
  "\u2581Spirit": 4310,
  "\u2581creation": 4311,
  "\u2581Though": 4312,
  "\u2581color": 4313,
  "\u2581hero": 4314,
  "\u2581tu\u00e2n": 4315,
  "\u2581h\u1ea3i": 4316,
  "\u00e9": 4317,
  "\u2581Tim": 4318,
  "\u2581khinh": 4319,
  "\u2581main": 4320,
  "\u2581various": 4321,
  "\u2581Also": 4322,
  "\u2581weapon": 4323,
  "\u2581drinking": 4324,
  "\u2581\u0111\u0129a": 4325,
  "\u2581tr\u00e1": 4326,
  "\u2581van": 4327,
  "\u2581qu\u1ea3ng": 4328,
  "\u258116:": 4329,
  "\u2581fill": 4330,
  "\u2581drunk": 4331,
  "ING": 4332,
  "N\u1ebfu": 4333,
  "t\u1edb": 4334,
  "\u258111,": 4335,
  "\u2581add": 4336,
  "\u2581\u1edc": 4337,
  "\u2581respond": 4338,
  "\u2581High": 4339,
  "ja": 4340,
  "ol": 4341,
  "\u2581gas": 4342,
  "\u2581n\u01b0\u01a1ng": 4343,
  "\u2581yesterday": 4344,
  "os": 4345,
  "\u2581Agent": 4346,
  "\u2581Simon": 4347,
  "\u2581officer": 4348,
  "\u2581Th\u1eed": 4349,
  "\u2581ng\u1eabm": 4350,
  "\u2581\u0111\u1ebb": 4351,
  "\u2581student": 4352,
  "\u2581Ask": 4353,
  "\u2581Fire": 4354,
  "\u2581appear": 4355,
  "\u2581chu": 4356,
  "ite": 4357,
  "\u2581th\u1ea3i": 4358,
  "\u2581regarding": 4359,
  "\u2581h\u00e8": 4360,
  "b\u00ecnh": 4361,
  "\u2581bigger": 4362,
  "\u2581heavy": 4363,
  "\u2581steps": 4364,
  "\u2581thine": 4365,
  "\u2581continued": 4366,
  "\u2581cops": 4367,
  "\u2581kh\u1ea3o": 4368,
  "\u2581killer": 4369,
  "7": 4370,
  "\u2581Moreover": 4371,
  "\u2581N\u00e0ng": 4372,
  "\u2581vital": 4373,
  "X": 4374,
  "\u2581influence": 4375,
  "\u2581..": 4376,
  "\u258121.": 4377,
  "\u2581stuck": 4378,
  "\u2581\u1ee9c": 4379,
  "\u2581privilege": 4380,
  "\u2581l\u00faa": 4381,
  "\u2581h\u1ed7n": 4382,
  "\u2581promises": 4383,
  "\u2581gay": 4384,
  "\u2581sold": 4385,
  "\u2581H\u1ea7u": 4386,
  "\u2581moral": 4387,
  "\u2581double": 4388,
  "\u2581nh\u1edf": 4389,
  "\u2581games": 4390,
  "\u2581option": 4391,
  "\u258112,": 4392,
  "\u2581mountains": 4393,
  "\u2581prepare": 4394,
  "V\u1ed7": 4395,
  "\u2581thereof": 4396,
  "\u2581hole": 4397,
  "\u2581lu\u00e2n": 4398,
  "\u2581board": 4399,
  "\u2581ti\u00ea": 4400,
  "\u2581hurry": 4401,
  "\u2581quit": 4402,
  "\u2581Ch\u1ed7": 4403,
  "\u2581conscience": 4404,
  "*": 4405,
  "\u2581rise": 4406,
  "\u2581drugs": 4407,
  "\u2581note": 4408,
  "This": 4409,
  "\u2581Ho\u00e0n": 4410,
  "\u2581prophets": 4411,
  "\u2581efforts": 4412,
  "\u2581keeps": 4413,
  "\u2581definitely": 4414,
  "\u2581orders": 4415,
  "\u2581seriously": 4416,
  "\u2581wilderness": 4417,
  "\u2581quality": 4418,
  "\u2581Lo": 4419,
  "\u2581Sy": 4420,
  "\u2581ch\u00ecm": 4421,
  "\u2581gi\u00e0nh": 4422,
  "\u2581l\u00e2n": 4423,
  "\u2581moon": 4424,
  "\u2581files": 4425,
  "\u2581progress": 4426,
  "\u2581concerned": 4427,
  "\u2581success": 4428,
  "\u2581expression": 4429,
  "\u258114,": 4430,
  "\u2581event": 4431,
  "\u2581grand": 4432,
  "\u2581hi\u1ebfn": 4433,
  "\u2581target": 4434,
  "\u2581wives": 4435,
  "\u2581gi\u00e1p": 4436,
  "\u2581correct": 4437,
  "\u2581u\u1ebf": 4438,
  "\u2581b\u1ef1c": 4439,
  "\u2581Kh\u1ed1n": 4440,
  "\u2581becoming": 4441,
  "\u2581bomb": 4442,
  "\u2581b\u1edb": 4443,
  "\u2581magic": 4444,
  "\u2581nghi\u1ec7n": 4445,
  "\u2581r\u1ebd": 4446,
  "\u258118:": 4447,
  "\u2581chuy\u00ea": 4448,
  "\u2581community": 4449,
  "\u2581k\u0129": 4450,
  "\u2581guns": 4451,
  "\u2581current": 4452,
  "\u2581soldiers": 4453,
  "\u2581t\u1ee5": 4454,
  "\u2581\u0110\u00e2u": 4455,
  "\u2581\u0110\u01b0\u01a1": 4456,
  "\u2581V\u1ee5": 4457,
  "\u2581becomes": 4458,
  "\u2581explained": 4459,
  "\u2581images": 4460,
  "\u2581l\u1ee1": 4461,
  "\u258136": 4462,
  "ti": 4463,
  "\u2581favorite": 4464,
  "\u2581feed": 4465,
  "\u2581remind": 4466,
  "\u2581t\u1ea3ng": 4467,
  "\u2581connection": 4468,
  "\u2581weak": 4469,
  "\u2581finding": 4470,
  "\u2581r\u1ed3ng": 4471,
  "\u2581Dean": 4472,
  "\u2581Qu\u00e2n": 4473,
  "\u2581d\u00ea": 4474,
  "\u2581protection": 4475,
  "\u2581burnt": 4476,
  "\u2581captain": 4477,
  "\u2581Ho": 4478,
  "\u2581nh\u00e2": 4479,
  "\u258119:": 4480,
  "\u2581neck": 4481,
  "ge": 4482,
  "ley": 4483,
  "per": 4484,
  "\u2581godly": 4485,
  "\u2581b\u00f3": 4486,
  "\u2581drug": 4487,
  "\u2581worst": 4488,
  "\u2581cases": 4489,
  "\u2581member": 4490,
  "\u2581OF": 4491,
  "\u2581l\u01b0\u1ee3t": 4492,
  "\u2581loss": 4493,
  "\u258120:": 4494,
  "\u2581develop": 4495,
  "\u2581bastard": 4496,
  "\u2581ph\u1ea5n": 4497,
  "\u2581firm": 4498,
  "\u2581m\u00f2": 4499,
  "\u2581tr\u1ee9ng": 4500,
  "\u2581B\u00e1o": 4501,
  "\u2581Cannot": 4502,
  "\u2581actions": 4503,
  "\u2581l\u00eca": 4504,
  "\u2581travel": 4505,
  "\u2581c\u1eafn": 4506,
  "\u2581hi\u1ebfp": 4507,
  "\u2581d\u1eaft": 4508,
  "\u2581Xe": 4509,
  "\u2581f": 4510,
  "\u2581push": 4511,
  "year": 4512,
  "\u2581Brooklyn": 4513,
  "\u2581suddenly": 4514,
  "\u2581s\u1eefa": 4515,
  "\u2581determined": 4516,
  "\u2581eventually": 4517,
  "\u2581extra": 4518,
  "\u2581project": 4519,
  "\u2581robot": 4520,
  "\u2581ears": 4521,
  "\u2581flight": 4522,
  "\u2581proved": 4523,
  "\u2581display": 4524,
  "\u2581Too": 4525,
  "God": 4526,
  "\u2581d\u1eb9p": 4527,
  "6": 4528,
  "\u2581Cao": 4529,
  "\u2581m\u00e9t": 4530,
  "ad": 4531,
  "v\u00e0": 4532,
  "\u2581harm": 4533,
  "\u2581su\u1ea5t": 4534,
  "\u2581truck": 4535,
  "\u2581Maria": 4536,
  "\u2581Aah": 4537,
  "\u2581H\u1ed3i": 4538,
  "\u2581L\u1ed7i": 4539,
  "\u2581covered": 4540,
  "\u2581stars": 4541,
  "\u2581vi\u1ec5n": 4542,
  "\u2581\u0111\u1ec7": 4543,
  "\u2581g\u1eb7t": 4544,
  "\u2581terms": 4545,
  "\u2581Society": 4546,
  "\u2581standards": 4547,
  "\u2581discuss": 4548,
  "\u2581CN": 4549,
  "\u2581nearly": 4550,
  "\u2581n\u1ea3n": 4551,
  "\u2581sexual": 4552,
  "\u2581weight": 4553,
  "\u2581dare": 4554,
  "\u2581Arthur": 4555,
  "\u2581track": 4556,
  "Let": 4557,
  "\u2581hotel": 4558,
  "\u2581pro": 4559,
  "\u2581Five": 4560,
  "\u2581daily": 4561,
  "\u2581S\u01b0": 4562,
  "\u2581ng\u01b0\u1ee1ng": 4563,
  "\u2581Honey": 4564,
  "\u2581generation": 4565,
  "\u2581lo\u1ea1t": 4566,
  "\u2581forgot": 4567,
  "ance": 4568,
  "\u2581Ti\u1ec1n": 4569,
  "\u2581L\u00fd": 4570,
  "\u2581Thi\u1ebft": 4571,
  "\u2581initialise": 4572,
  "\u2581v\u1ea9n": 4573,
  "\u2581Use": 4574,
  "\u2581absolutely": 4575,
  "\u2581Scott": 4576,
  "\u2581Ti\u1ec3u": 4577,
  "\u2581college": 4578,
  "\u2581obey": 4579,
  "\u2581border": 4580,
  "\u2581goal": 4581,
  "\u2581tr\u00fang": 4582,
  "\u2581L\u1ebd": 4583,
  "\u2581m\u1ef1c": 4584,
  "Ng\u01b0\u1eddi": 4585,
  "land": 4586,
  "\u2581East": 4587,
  "\u2581m\u01b0\u1ee3n": 4588,
  "mon": 4589,
  "\u2581tr\u00e0": 4590,
  "\u2581Kill": 4591,
  "\u2581Tay": 4592,
  "\u2581s\u00e9p": 4593,
  "\u2581thi\u1ec7p": 4594,
  "In": 4595,
  "\u2581virus": 4596,
  "\u2581rid": 4597,
  "\u2581L\u00f2ng": 4598,
  "\u2581c\u1edfi": 4599,
  "\u2581M\u1eddi": 4600,
  "(": 4601,
  "lu": 4602,
  "\u2581b\u1edbt": 4603,
  "\u2581smoke": 4604,
  "\u2581\u00c1": 4605,
  "\u2581thao": 4606,
  "\u2581Doctor": 4607,
  "\u2581ng\u1ea1o": 4608,
  "\u2581\u0110\u1eb7t": 4609,
  "if": 4610,
  "\u2581William": 4611,
  "\u2581Xong": 4612,
  "\u2581described": 4613,
  "\u2581tuy\u1ebft": 4614,
  "\u2581Anyway": 4615,
  "\u2581congregations": 4616,
  "\u2581twice": 4617,
  "\u2581easily": 4618,
  "\u2581walls": 4619,
  "for": 4620,
  "ron": 4621,
  "\u2581surprised": 4622,
  "\u258116,": 4623,
  "\u2581Witness": 4624,
  "\u2581east": 4625,
  "\u2581arrest": 4626,
  "\u2581preach": 4627,
  "\u2581t\u0103m": 4628,
  "\u2581Shh": 4629,
  "\u2581blessings": 4630,
  "\u2581flock": 4631,
  "ci": 4632,
  "vo": 4633,
  "\u2581girlfriend": 4634,
  "\u2581recorded": 4635,
  "\u2581cells": 4636,
  "\u2581None": 4637,
  "\u2581kh": 4638,
  "\u2581d\u0169ng": 4639,
  "ster": 4640,
  "\u2581China": 4641,
  "\u2581Tower": 4642,
  "\u2581acts": 4643,
  "\u2581breath": 4644,
  "\u2581\u0111\u1eafn": 4645,
  "\u2581chapter": 4646,
  "\u2581twenty": 4647,
  "\u2581courage": 4648,
  "\u2581g\u1edfi": 4649,
  "\u2581powers": 4650,
  "\u2581environment": 4651,
  "\u2581growing": 4652,
  "\u2581t\u00e1o": 4653,
  "C\u00e1c": 4654,
  "\u2581beauty": 4655,
  "\u2581l\u00f2": 4656,
  "\u2581plans": 4657,
  "\u2581blame": 4658,
  "\u2581increase": 4659,
  "\u2581\u201d?": 4660,
  "\u2581billion": 4661,
  "\u2581khung": 4662,
  "\u2581t\u1ed1ng": 4663,
  "\u2581bunch": 4664,
  "\u2581leg": 4665,
  "\u2581leaders": 4666,
  "\u2581lesson": 4667,
  "\u2581chose": 4668,
  "\u2581g\u00e3y": 4669,
  "\u2581pictures": 4670,
  "\u2581published": 4671,
  "\u2581regard": 4672,
  "\u2581vun": 4673,
  "\u2581Park": 4674,
  "\u2581c\u00e1t": 4675,
  "\u2581tr\u1ee5c": 4676,
  "\u2581Ghi": 4677,
  "\u2581Without": 4678,
  "\u2581Chris": 4679,
  "\u2581easier": 4680,
  "\u2581mention": 4681,
  "\u2581Europe": 4682,
  "\u2581Hence": 4683,
  "\u2581Se": 4684,
  "\u2581Tr\u1eeb": 4685,
  "\u2581approach": 4686,
  "\u2581v\u1ea3": 4687,
  "\u2581belong": 4688,
  "\u2581hi\u1ebfm": 4689,
  "\u2581male": 4690,
  "\u2581N\u1eef": 4691,
  "\u2581afternoon": 4692,
  "\u2581higher": 4693,
  "\u2581shame": 4694,
  "\u2581integrity": 4695,
  "\u2581v\u00e9": 4696,
  "\u2581v\u1edb": 4697,
  "\u2581Kate": 4698,
  "\u2581g\u1ea1t": 4699,
  "\u2581rejoice": 4700,
  "\u2581release": 4701,
  "\u2581reward": 4702,
  "\u2581surface": 4703,
  "\u2581component": 4704,
  "\u2581gi\u1ee5c": 4705,
  "\u2581star": 4706,
  "\u2581IN": 4707,
  "\u2581m\u0169": 4708,
  "\u2581tr\u1eebng": 4709,
  "\u2581experienced": 4710,
  "\u2581d\u1ea1o": 4711,
  "\u2581s\u01b0\u1edbng": 4712,
  "lin": 4713,
  "\u2581ng\u0169": 4714,
  "\u2581so\u1ea1n": 4715,
  "br": 4716,
  "\u2581Ngh\u0129a": 4717,
  "\u2581s\u1ef9": 4718,
  "\u2581vi\u1ebfng": 4719,
  "\u2581Four": 4720,
  "\u2581aside": 4721,
  "\u2581attend": 4722,
  "\u2581C\u1eadp": 4723,
  "\u2581map": 4724,
  "\u2581neighbor": 4725,
  "\u2581spot": 4726,
  "den": 4727,
  "\u2581h\u00e8n": 4728,
  "l\u00f2ng": 4729,
  "\u2581behavior": 4730,
  "\u2581gi": 4731,
  "\u2581reality": 4732,
  "\u2581taste": 4733,
  "\u2581t\u00f9ng": 4734,
  "\u2581v\u00f5": 4735,
  "\u2581T\u01b0": 4736,
  "\u2581xoay": 4737,
  "\u2581occasion": 4738,
  "\u2581ear": 4739,
  "l\u00f4n": 4740,
  "\u2581Th\u1ea3": 4741,
  "\u2581term": 4742,
  "\u2581Vi": 4743,
  "ized": 4744,
  "\u2581dry": 4745,
  "\u2581horses": 4746,
  "\u2581m\u1ed3m": 4747,
  "\u2581Washington": 4748,
  "\u2581losing": 4749,
  "\u2581Scriptural": 4750,
  "\u2581driving": 4751,
  "\u2581k\u1ec9": 4752,
  "\u2581appropriate": 4753,
  "\u2581Isaac": 4754,
  "\u2581Ti\u1ebfng": 4755,
  "\u2581idiot": 4756,
  "\u2581summer": 4757,
  "\u2581tr\u1ea7m": 4758,
  "\u2581understood": 4759,
  "\u2581bottom": 4760,
  "\u2581houses": 4761,
  "\u2581location": 4762,
  "\u2581meal": 4763,
  "\u02b9": 4764,
  "\u2581V\u00f4": 4765,
  "\u2581c\u1ed1c": 4766,
  "\u2581Walter": 4767,
  "\u2581m\u1ed9ng": 4768,
  "\u2581ought": 4769,
  "\u2581added": 4770,
  "like": 4771,
  "\u2581ch\u1ecdc": 4772,
  "\u2581cu": 4773,
  "\u2581goddamn": 4774,
  "\u2581th\u00f4": 4775,
  "\u00e1p": 4776,
  "\u2581dude": 4777,
  "ant": 4778,
  "\u2581Ex": 4779,
  "\u2581Roger": 4780,
  "\u2581closed": 4781,
  "\u2581required": 4782,
  "\u2581ends": 4783,
  "\u2581pioneer": 4784,
  "\u2581rate": 4785,
  "\u2581Kevin": 4786,
  "\u2581conditions": 4787,
  "\u2581c\u1ef1": 4788,
  "\u2581nu\u1ed1t": 4789,
  "\u2581DNA": 4790,
  "\u25811914": 4791,
  "\u2581t\u00e0ng": 4792,
  "\u2581locked": 4793,
  "\u2581tough": 4794,
  "nh\u1eefng": 4795,
  "\u2581played": 4796,
  "\u2581tribe": 4797,
  "\u2581jump": 4798,
  "\u2581suit": 4799,
  "\u2581Mo": 4800,
  "\u2581basic": 4801,
  "\u2581legs": 4802,
  "\u2581response": 4803,
  "\u2581letters": 4804,
  "\u2581cash": 4805,
  "\u2581discovered": 4806,
  "\u2581kh\u00e9o": 4807,
  "\u2581b\u00e1m": 4808,
  "\u2581d\u1ecdc": 4809,
  "\u2581manner": 4810,
  "\u2581tr\u00fa": 4811,
  "\u2581lock": 4812,
  "v\u1eady": 4813,
  "\u2581s\u00e0n": 4814,
  "\u2581personally": 4815,
  "\u2581turning": 4816,
  "tri": 4817,
  "\u2581Alright": 4818,
  "\u2581tea": 4819,
  "\u2581\u1ed5": 4820,
  "\u2581Gi": 4821,
  "\u2581exercise": 4822,
  "\u2581sacred": 4823,
  "\u2581super": 4824,
  "\u2581s\u1ee3i": 4825,
  "\u1edf": 4826,
  "\u2581Catholic": 4827,
  "\u2581{\\": 4828,
  "\u2581G\u00e3": 4829,
  "\u2581centuries": 4830,
  "\u2581match": 4831,
  "\u2581studying": 4832,
  "Oh": 4833,
  "\u2581V\u01b0\u01a1ng": 4834,
  "\u2581s\u00fac": 4835,
  "\u2581center": 4836,
  "\u2581m\u1ed3i": 4837,
  "\u2581leo": 4838,
  "IN": 4839,
  "ize": 4840,
  "\u2581Hell": 4841,
  "\u2581gi\u00e3n": 4842,
  "\u2581market": 4843,
  "\u2581Somebody": 4844,
  "\u2581cat": 4845,
  "\u2581bird": 4846,
  "ir": 4847,
  "ated": 4848,
  "\u2581Gi\u00e1ng": 4849,
  "\u2581fulfilled": 4850,
  "za": 4851,
  "\u2581Later": 4852,
  "\u2581hundreds": 4853,
  "\u2581garden": 4854,
  "\u2581basis": 4855,
  "\u2581explains": 4856,
  "\u2581ransom": 4857,
  "\u2581Gi\u00e1": 4858,
  "\u2581H\u1ea1": 4859,
  "\u2581earthly": 4860,
  "\u2581Ten": 4861,
  "\u2581Uncle": 4862,
  "po": 4863,
  "\u258123.": 4864,
  "\u2581accurate": 4865,
  "\u2581liked": 4866,
  "\u2581treatment": 4867,
  "\u2581Billy": 4868,
  "mp": 4869,
  "\u2581\u00f4m": 4870,
  "\u2581Phoebe": 4871,
  "\u2581ended": 4872,
  "\u2581recently": 4873,
  "xa": 4874,
  "\u2581Day": 4875,
  "\u2581Soon": 4876,
  "\u2581sleeping": 4877,
  "\u2581S\u1ebfp": 4878,
  "\u2581branch": 4879,
  "\u2581h\u1ea1ng": 4880,
  "\u2581Pictures": 4881,
  "\u2581c\u01b0\u1eddng": 4882,
  "\u2581C\u1ea7u": 4883,
  "\u2581German": 4884,
  "\u2581grown": 4885,
  "\u2581deserve": 4886,
  "\u2581error": 4887,
  "\u2581tri\u1ec1u": 4888,
  "\u2581global": 4889,
  "\u2581stated": 4890,
  "\u2581\u0110\u1ebf": 4891,
  "\u258113,": 4892,
  "\u2581jail": 4893,
  "\u2581\u0110\u00eam": 4894,
  "\u2581h\u00e9t": 4895,
  "\u2581Gi\u1ea3i": 4896,
  "\u2581Happy": 4897,
  "\u2581Thuy\u1ec1n": 4898,
  "\u2581expected": 4899,
  "\u2581hiding": 4900,
  "\u2581roof": 4901,
  "\u2581site": 4902,
  "\u2581activities": 4903,
  "\u2581ho\u00e1": 4904,
  "\u2581familiar": 4905,
  "\u2581km": 4906,
  "\u2581phe": 4907,
  "\u2581Each": 4908,
  "\u2581Hang": 4909,
  "\u2581committed": 4910,
  "\u2581mental": 4911,
  "\u2581Canada": 4912,
  "\u2581corner": 4913,
  "\u2581specific": 4914,
  "\u2581gi\u00e1n": 4915,
  "cho": 4916,
  "\u2581Ki\u1ec3m": 4917,
  "\u2581carefully": 4918,
  "\u2581struck": 4919,
  "\u2581Bethel": 4920,
  "\u2581gieo": 4921,
  "vi\u1ec7c": 4922,
  "\u2581Car": 4923,
  "\u2581lab": 4924,
  "\u2581victim": 4925,
  "\u2581damage": 4926,
  "\u2581leaves": 4927,
  "\u2581lovely": 4928,
  "\u2581worldwide": 4929,
  "\u2581design": 4930,
  "\u2581h\u1eadn": 4931,
  "\u2581ng\u1ef1": 4932,
  "\u2581trial": 4933,
  "\u2581x\u00f3m": 4934,
  "\u2581Brian": 4935,
  "\u2581Trust": 4936,
  "\u00d0\u1ee9c": 4937,
  "\u2581agent": 4938,
  "\u2581n\u1ed9": 4939,
  "\u2581excuse": 4940,
  "\u2581Mu": 4941,
  "Khi": 4942,
  "ck": 4943,
  "\u2581l\u1ecbnh": 4944,
  "\u258122:": 4945,
  "\u2581famous": 4946,
  "\u2581l\u00e2": 4947,
  "\u2581vi\u00ea": 4948,
  "\u2581Set": 4949,
  "\u258148": 4950,
  "\u2581Le": 4951,
  "\u2581career": 4952,
  "\u2581ng\u01b0ng": 4953,
  "der": 4954,
  "\u2581Line": 4955,
  "\u2581forces": 4956,
  "\u2581issues": 4957,
  "pha": 4958,
  "\u2581active": 4959,
  "\u2581direct": 4960,
  "\u2581\u0111\u1eb7n": 4961,
  "\u2581Danh": 4962,
  "\u2581Want": 4963,
  "\u2581gather": 4964,
  "nh\u01b0": 4965,
  "\u2581ch\u01b0\u1edbc": 4966,
  "\u2581lunch": 4967,
  "\u2581opening": 4968,
  "\u2581Stark": 4969,
  "\u2581remove": 4970,
  "\u2581remains": 4971,
  "\u2581Z": 4972,
  "\u2581figured": 4973,
  "ER": 4974,
  "\u2581dreams": 4975,
  "\u2581gh\u00e9": 4976,
  "\u2581cup": 4977,
  "\u2581h\u00ea": 4978,
  "\u2581Dude": 4979,
  "\u2581Men": 4980,
  "\u2581entered": 4981,
  "\u2581total": 4982,
  "\u2581Tr\u00f2": 4983,
  "\u2581th\u00e1p": 4984,
  "\u2581tr\u01b0\u1ee3t": 4985,
  "\u2581b\u00ec": 4986,
  "\u2581claim": 4987,
  "\u2581languages": 4988,
  "\u2581behalf": 4989,
  "\u2581proof": 4990,
  "\u2581t\u1ecbch": 4991,
  "\u2581request": 4992,
  "\u2581Elijah": 4993,
  "\u2581Hannah": 4994,
  "\u2581ng\u1ea7m": 4995,
  "\u2581Rose": 4996,
  "\u2581birds": 4997,
  "\u2581traveling": 4998,
  "\u2581wood": 4999,
  "\u2581r\u1ed9n": 5000,
  "\u2581Both": 5001,
  "\u2581affect": 5002,
  "\u2581measure": 5003,
  "\u2581staying": 5004,
  "\u2581kick": 5005,
  "\u2581s\u1ee5p": 5006,
  "\u2581reached": 5007,
  "\u2581x\u00f4ng": 5008,
  "\u2581boyfriend": 5009,
  "\u2581nguy\u1ec1n": 5010,
  "\u2581doors": 5011,
  "\u2581m\u1edd": 5012,
  "\u2581obviously": 5013,
  "\u2581California": 5014,
  "\u2581fuckin": 5015,
  "\u2581imitate": 5016,
  "\u2581lines": 5017,
  "\u2581r": 5018,
  "\u2581\u0111c": 5019,
  "@": 5020,
  "pe": 5021,
  "\u2581B\u1ec7nh": 5022,
  "\u2581Ready": 5023,
  "\u2581\u0111i\u1ebfm": 5024,
  "\u2581H\u00e0nh": 5025,
  "\u2581appreciation": 5026,
  "\u2581baptism": 5027,
  "\u2581revealed": 5028,
  "\u2581ru\u1ed9t": 5029,
  "\u2581en": 5030,
  "\u2581fresh": 5031,
  "\u2581lots": 5032,
  "\u2581magazine": 5033,
  "\u2581fought": 5034,
  "\u2581guilty": 5035,
  "\u2581queen": 5036,
  "\u2581tr\u1ea1m": 5037,
  "\u2581C\u00e0": 5038,
  "\u2581operation": 5039,
  "\u2581plus": 5040,
  "\u2581film": 5041,
  "\u2581ng": 5042,
  "\u2581India": 5043,
  "\u2581related": 5044,
  "\u2581joke": 5045,
  "\u2581Hi\u1ec7p": 5046,
  "\u2581picked": 5047,
  "\u2581credit": 5048,
  "Jehovah": 5049,
  "\u2581assignment": 5050,
  "\u2581possibly": 5051,
  "\u2581buried": 5052,
  "\u2581reports": 5053,
  "\u2581\u0110\u00e0n": 5054,
  "\u2581bless": 5055,
  "\u2581kinds": 5056,
  "\u2581C\u1ed9ng": 5057,
  "\u2581D\u1ea1": 5058,
  "\u2581stage": 5059,
  "\u2581acting": 5060,
  "\u2581beast": 5061,
  "\u2581club": 5062,
  "\u2581harmony": 5063,
  "ex": 5064,
  "\u2581bound": 5065,
  "\u2581ladies": 5066,
  "How": 5067,
  "\u2581Grace": 5068,
  "\u2581dis": 5069,
  "\u2581dust": 5070,
  "\u2581heat": 5071,
  "\u2581zero": 5072,
  "\u0111i": 5073,
  "\u2581Sea": 5074,
  "\u2581V\u1ecb": 5075,
  "\u2581inheritance": 5076,
  "\u2581Were": 5077,
  "c\u1ed1p": 5078,
  "\u258119,": 5079,
  "\u2581Mang": 5080,
  "\u2581Wilson": 5081,
  "\u2581onto": 5082,
  "\u2581developed": 5083,
  "\u2581foretold": 5084,
  "\u2581\u00f4i": 5085,
  "off": 5086,
  "\u2581separate": 5087,
  "\u2581v\u1ecf": 5088,
  "\u2581Francis": 5089,
  "\u2581khuy": 5090,
  "\u2581Professor": 5091,
  "\u2581button": 5092,
  "\u2581uy": 5093,
  "\u2581Jesse": 5094,
  "\u2581elder": 5095,
  "\u2581streets": 5096,
  "my": 5097,
  "\u2581believers": 5098,
  "\u2581flying": 5099,
  "\u2581interests": 5100,
  "su": 5101,
  "\u2581Du": 5102,
  "\u2581m\u1ea1n": 5103,
  "\u2581prayed": 5104,
  "\u2581established": 5105,
  "\u2581d\u00e1ng": 5106,
  "\u2581Through": 5107,
  "\u2581burned": 5108,
  "\u2581legal": 5109,
  "\u2581hoping": 5110,
  "\u2581paradise": 5111,
  "ow": 5112,
  "\u2581duty": 5113,
  "c\u00f9ng": 5114,
  "\u0111\u00ea": 5115,
  "\u2581shoes": 5116,
  "\u2581Seung": 5117,
  "\u2581l\u1eb7n": 5118,
  "\u2581Ted": 5119,
  "\u2581below": 5120,
  "\u2581sub": 5121,
  "j": 5122,
  "\u2581d\u00e2u": 5123,
  "\u258122.": 5124,
  "\u2581Baby": 5125,
  "\u2581Eric": 5126,
  "v\u1ec1": 5127,
  "\u2581details": 5128,
  "\u2581hidden": 5129,
  "\u2581stole": 5130,
  "\u2581tr\u1eef": 5131,
  "ina": 5132,
  "\u2581humble": 5133,
  "\u2581th\u1ea5u": 5134,
  "\u2581Street": 5135,
  "\u2581faster": 5136,
  "\u2581th\u1ea1nh": 5137,
  "\u2581Better": 5138,
  "\u2581Bu\u1ed5i": 5139,
  "\u258134": 5140,
  "\u2581Under": 5141,
  "\u2581Mount": 5142,
  "\u2581Ro": 5143,
  "\u2581areas": 5144,
  "\u2581gai": 5145,
  "\u2581upset": 5146,
  "\u2581l\u1ebb": 5147,
  "\u2581m\u1eadp": 5148,
  "\u258124:": 5149,
  "\u2581admit": 5150,
  "\u2581mark": 5151,
  "ble": 5152,
  "\u2581produce": 5153,
  "d\u00edp": 5154,
  "\u2581Stand": 5155,
  "ger": 5156,
  "\u2581Again": 5157,
  "\u2581advantage": 5158,
  "\u2581Chief": 5159,
  "\u2581directly": 5160,
  "\u2581\u1ee7y": 5161,
  "\u2581T\u1ed5": 5162,
  "\u2581b\u1ecdc": 5163,
  "\u2581cares": 5164,
  "\u2581deeply": 5165,
  "\u2581\u0111u\u00f4i": 5166,
  "\u2581Co": 5167,
  "\u2581S\u0129": 5168,
  "\u2581trade": 5169,
  "\u2581France": 5170,
  "\u2581hi\u00ea": 5171,
  "\u2581strike": 5172,
  "\u2581Pete": 5173,
  "\u2581Roy": 5174,
  "\u2581g\u00f3a": 5175,
  "\u2581lawyer": 5176,
  "\u2581Guys": 5177,
  "\u2581fulfillment": 5178,
  "\u2581victims": 5179,
  "\u2581#273;": 5180,
  "\u2581t\u1ee7": 5181,
  "\u2581V\u1eeba": 5182,
  "\u2581plant": 5183,
  "\u2581qu\u1ef9": 5184,
  "\u2581T\u00edn": 5185,
  "\u2581addition": 5186,
  "\u2581Bay": 5187,
  "\u2581inhabitants": 5188,
  "H\u1eb3n": 5189,
  "\u258120,": 5190,
  "\u2581Gi\u1edbi": 5191,
  "\u2581post": 5192,
  "\u258117,": 5193,
  "\u2581minds": 5194,
  "\u2581safety": 5195,
  "\u2581truy\u1ec7n": 5196,
  "/%": 5197,
  "\u2581Bobby": 5198,
  "\u2581endure": 5199,
  "\u2581suffered": 5200,
  "\u2581v\u1edd": 5201,
  "\u2581Old": 5202,
  "\u2581personality": 5203,
  "\u2581tight": 5204,
  "\u2581uncle": 5205,
  "ff": 5206,
  "\u2581basically": 5207,
  "\u2581d\u00e0y": 5208,
  "\u2581\u0110\u1ea5y": 5209,
  "\u2581Amy": 5210,
  "\u2581Gi\u1ea3": 5211,
  "\u2581N\u1eb1m": 5212,
  "\u2581include": 5213,
  "\u2581setting": 5214,
  "\u2581v\u00e2n": 5215,
  "\u2581groups": 5216,
  "\u2581nose": 5217,
  "\u2581Detective": 5218,
  "\u2581noticed": 5219,
  "\u2581s\u00ea": 5220,
  "\u2581\u0111\u00e1o": 5221,
  "8": 5222,
  "ard": 5223,
  "\u2581Andrew": 5224,
  "\u2581Down": 5225,
  "\u2581State": 5226,
  "che": 5227,
  "les": 5228,
  "\u2581L\u00e3nh": 5229,
  "\u2581grab": 5230,
  "\u2581pregnant": 5231,
  "\u2581Ed": 5232,
  "\u2581Johnny": 5233,
  "\u2581appears": 5234,
  "\u2581b\u0103": 5235,
  "\u2581x\u00e9": 5236,
  "ten": 5237,
  "\u2581Church": 5238,
  "\u2581dealing": 5239,
  "\u2581teeth": 5240,
  "\u2581crying": 5241,
  "\u2581asleep": 5242,
  "\u2581discipline": 5243,
  "\u2581fan": 5244,
  "\u2581ph\u00f4": 5245,
  "\u2581Ne": 5246,
  "\u2581secure": 5247,
  "\u2581Ki\u1ec3u": 5248,
  "\u2581Yep": 5249,
  "\u2581crew": 5250,
  "\u2581pin": 5251,
  "\u2581leading": 5252,
  "\u2581seeking": 5253,
  "\u2581lam": 5254,
  "\u2581n\u00ea": 5255,
  "\u2581planning": 5256,
  "\u2581vang": 5257,
  "\u2581creatures": 5258,
  "\u2581emotional": 5259,
  "\u2581Box": 5260,
  "\u2581Shall": 5261,
  "\u2581screen": 5262,
  "\u2581x\u1ea1": 5263,
  "\u2581\u01af\u1edbc": 5264,
  "My": 5265,
  "\u2581prefer": 5266,
  "\u2581U\u1ed1ng": 5267,
  "\u2581faces": 5268,
  "\u2581grateful": 5269,
  "\u2581g\u1eady": 5270,
  "\u2581stayed": 5271,
  "\u2581Doug": 5272,
  "\u2581medicine": 5273,
  "\u2581towards": 5274,
  "\u2581Mama": 5275,
  "\u2581Morgan": 5276,
  "\u2581statement": 5277,
  "ya": 5278,
  "\u2581prevent": 5279,
  "\u2581recent": 5280,
  "\u2581s\u1eafm": 5281,
  "\u2581cute": 5282,
  "\u2581n\u00e3y": 5283,
  "\u2581ruin": 5284,
  "\u2581x\u00edch": 5285,
  "\u2581Colonel": 5286,
  "\u2581School": 5287,
  "\u2581Mac": 5288,
  "\u2581M\u00e0u": 5289,
  "\u2581ark": 5290,
  "\u2581b\u1ea3": 5291,
  "\u2581trials": 5292,
  "\u2581youth": 5293,
  "\u2581Nevertheless": 5294,
  "\u2581offerings": 5295,
  "\u2581Texas": 5296,
  "\u2581Xa": 5297,
  "\u2581root": 5298,
  "\u2581\u0111inh": 5299,
  "\u2581Besides": 5300,
  "\u2581dedicated": 5301,
  "\u2581shooting": 5302,
  "\u2581th\u01a1m": 5303,
  "\u2581Hank": 5304,
  "\u2581reflect": 5305,
  "\u2581teachers": 5306,
  "\u2581Lu\u00f4n": 5307,
  "ey": 5308,
  "\u2581Forget": 5309,
  "\u2581gotten": 5310,
  "\u2581Lady": 5311,
  "\u2581L\u00e3o": 5312,
  "Nh\u1eefng": 5313,
  "\u2581\u00c2m": 5314,
  "\u2581Wall": 5315,
  "\u2581glass": 5316,
  "\u2581signal": 5317,
  "\u2581wide": 5318,
  "id": 5319,
  "\u2581practical": 5320,
  "\u2581saving": 5321,
  "\u2581wondering": 5322,
  "30": 5323,
  "\u2581Bruce": 5324,
  "\u2581leader": 5325,
  "\u2581kh\u00e1i": 5326,
  "\u2581lift": 5327,
  "\u2581Bi\u1ebfn": 5328,
  "\u2581express": 5329,
  "\u2581park": 5330,
  "\u258124.": 5331,
  "\u2581darling": 5332,
  "\u2581IT": 5333,
  "\u2581m\u1ecf": 5334,
  "\u2581th\u1ecbnh": 5335,
  "\u2581wrath": 5336,
  "\u2581C\u1eeda": 5337,
  "\u2581suggest": 5338,
  "\u2581Russian": 5339,
  "\u2581although": 5340,
  "\u2581asshole": 5341,
  "\u2581ch\u0103": 5342,
  "\u2581perform": 5343,
  "\u2581provides": 5344,
  "\u2581psalmist": 5345,
  "\u2581Bi": 5346,
  "\u2581Chi\u1ebfc": 5347,
  "\u2581bow": 5348,
  "\u2581younger": 5349,
  "\u2581t\u00ea": 5350,
  "\u2581Unless": 5351,
  "\u2581warned": 5352,
  "\u2581England": 5353,
  "\u2581Victor": 5354,
  "\u2581distance": 5355,
  "\u2581foreign": 5356,
  "H\u1ee1i": 5357,
  "\u2581forced": 5358,
  "\u2581h\u00e3m": 5359,
  "\u2581paying": 5360,
  "\u2581Ph\u01b0\u01a1ng": 5361,
  "\u2581Until": 5362,
  "\u2581guide": 5363,
  "\u2581Amen": 5364,
  "\u2581Finally": 5365,
  "\u2581\u0111\u00e9o": 5366,
  "\u2581existence": 5367,
  "#243;": 5368,
  "\u2581Benjamin": 5369,
  "\u2581Chuy\u1ec3n": 5370,
  "\u2581benefits": 5371,
  "\u2581goodness": 5372,
  "\u2581pulled": 5373,
  "\u2581bother": 5374,
  "\u2581burning": 5375,
  "\u2581g\u00f5": 5376,
  "\u2581enjoyed": 5377,
  "\u2581ng\u1ee5": 5378,
  "\u2581ti\u1ec7m": 5379,
  "\u2581n\u01b0\u1edbng": 5380,
  "\u2581theory": 5381,
  "our": 5382,
  "\u2581tribulation": 5383,
  "ence": 5384,
  "huh": 5385,
  "\u2581K\u00ea": 5386,
  "\u2581Po": 5387,
  "\u2581loud": 5388,
  "\u2581valuable": 5389,
  "\u2581Y\u00eau": 5390,
  "\u2581beloved": 5391,
  "\u2581threat": 5392,
  "\u2581wash": 5393,
  "\u2581qu\u0103ng": 5394,
  "\u2581vu": 5395,
  "\u2581Gilead": 5396,
  "\u2581b\u00e9o": 5397,
  "\u2581b\u1ed9t": 5398,
  "\u2581population": 5399,
  "\u2581>": 5400,
  "\u2581genuine": 5401,
  "\u2581lower": 5402,
  "\u2581Gh\u00ea": 5403,
  "gi": 5404,
  "\u2581accounts": 5405,
  "\u2581lied": 5406,
  "\u2581object": 5407,
  "\u2581th\u00e2u": 5408,
  "\u2581trained": 5409,
  "\u2581Close": 5410,
  "\u2581cu\u1ed3ng": 5411,
  "\u2581sacrifices": 5412,
  "\u2581trick": 5413,
  "l\u00ea": 5414,
  "\u2581assume": 5415,
  "\u2581roll": 5416,
  "\u2581successful": 5417,
  "\u2581Comment": 5418,
  "\u2581convinced": 5419,
  "\u2581healthy": 5420,
  "\u2581commandments": 5421,
  "\u2581Whoo": 5422,
  "\u2581loyalty": 5423,
  "\u2581CIA": 5424,
  "\u2581Probably": 5425,
  "\u2581forgotten": 5426,
  "\u2581gifts": 5427,
  "\u2581lips": 5428,
  "way": 5429,
  "\u2581l\u00f9i": 5430,
  "\u2581\u1eeam": 5431,
  "\u2581Edward": 5432,
  "\u2581Ng\u00f4i": 5433,
  "\u2581appeared": 5434,
  "\u2581pride": 5435,
  "\u2581th\u1ed5": 5436,
  "\u2581designed": 5437,
  "\u2581d\u00ec": 5438,
  "\u2581d\u1ecbu": 5439,
  "Christ": 5440,
  "\u2581Credit": 5441,
  "hu": 5442,
  "\u2581D\u01b0\u01a1ng": 5443,
  "\u2581agreed": 5444,
  "\u2581compassion": 5445,
  "\u2581driver": 5446,
  "\u2581particularly": 5447,
  "\u2581teachings": 5448,
  "\u2581v\u1ea3i": 5449,
  "ze": 5450,
  "\u2581Leo": 5451,
  "\u2581knife": 5452,
  "\u2581\u0111\u1ea5m": 5453,
  "\u2581V\u0103n": 5454,
  "\u2581noise": 5455,
  "\u2581Doesn": 5456,
  "\u2581D\u01b0\u1edbi": 5457,
  "\u2581Van": 5458,
  "\u2581cars": 5459,
  "\u2581hadn": 5460,
  "\u2581ong": 5461,
  "\u2581requires": 5462,
  "\u2581sending": 5463,
  "\u2581iron": 5464,
  "\u2581reported": 5465,
  "\u2581version": 5466,
  "\u2581Kh\u1ec9": 5467,
  "\u2581l\u00e1nh": 5468,
  "\u2581stones": 5469,
  "\u2581Being": 5470,
  "\u2581Ch\u01a1i": 5471,
  "\u2581d\u00e3": 5472,
  "\u2581starts": 5473,
  "\u2581c\u1ed1t": 5474,
  "\u2581household": 5475,
  "\u2581staff": 5476,
  "\u2581Levites": 5477,
  "\u2581Pa": 5478,
  "\u2581n\u1ea5y": 5479,
  "\u2581sharing": 5480,
  "\u2581online": 5481,
  "\u2581Others": 5482,
  "gen": 5483,
  "\u2581desires": 5484,
  "\u2581signs": 5485,
  "\u2581\u1ed1m": 5486,
  "\u2581useful": 5487,
  "\u2581Ph\u1ee5c": 5488,
  "\u2581nh\u00e1t": 5489,
  "nd": 5490,
  "\u2581Ng\u1ee7": 5491,
  "\u2581R\u1eb1ng": 5492,
  "\u2581beg": 5493,
  "\u2581fucked": 5494,
  "\u2581t\u00e2": 5495,
  "\u2581Marty": 5496,
  "\u2581cried": 5497,
  "\u2581keys": 5498,
  "\u2581national": 5499,
  "ai": 5500,
  "\u2581afford": 5501,
  "\u2581grave": 5502,
  "\u2581r\u0169": 5503,
  "\u2581s\u1ec9": 5504,
  "ak": 5505,
  "c\u00e1i": 5506,
  "\u2581curse": 5507,
  "\u2581g\u1ea5u": 5508,
  "\u2581convention": 5509,
  "\u2581awesome": 5510,
  "\u2581b\u1ed3i": 5511,
  "\u2581soldier": 5512,
  "\u2581values": 5513,
  "\u2581vong": 5514,
  "\u2581Easy": 5515,
  "izing": 5516,
  "\u2581Always": 5517,
  "\u2581pattern": 5518,
  "\u2581voi": 5519,
  "\u2581gen": 5520,
  "\u2581manh": 5521,
  "Why": 5522,
  "\u2581nervous": 5523,
  "c\u00e1c": 5524,
  "\u2581Messiah": 5525,
  "\u0111\u1eddi": 5526,
  "\u2581dirty": 5527,
  "\u2581storm": 5528,
  "\u2581Nguy\u00ean": 5529,
  "\u2581eternal": 5530,
  "\u2581workers": 5531,
  "ov": 5532,
  "\u2581guidance": 5533,
  "\u2581letting": 5534,
  "\u2581lights": 5535,
  "\u2581unique": 5536,
  "pi": 5537,
  "\u2581bones": 5538,
  "\u2581Christendom": 5539,
  "\u2581Cor": 5540,
  "\u2581cu\u1ed9n": 5541,
  "\u2581Thi\u1ebfu": 5542,
  "\u2581tri\u1ebft": 5543,
  "\u2581Ph\u1ee5": 5544,
  "\u2581declared": 5545,
  "\u2581female": 5546,
  "\u2581g\u1ed1i": 5547,
  "\u2581task": 5548,
  "\u2581Ngh\u0129": 5549,
  "\u2581Exactly": 5550,
  "\u2581heo": 5551,
  "\u2581joined": 5552,
  "\u2581uses": 5553,
  "\u2581carrying": 5554,
  "\u2581fate": 5555,
  "\u2581t\u1ecb": 5556,
  "ang": 5557,
  "ria": 5558,
  "tha": 5559,
  "\u2581k\u00e8m": 5560,
  "\u2581host": 5561,
  "\u2581literally": 5562,
  "\u2581regularly": 5563,
  "\u2581homes": 5564,
  "\u2581leads": 5565,
  "\u2581snow": 5566,
  "\u258125.": 5567,
  "\u2581Aren": 5568,
  "\u2581Louis": 5569,
  "\u2581h\u00f2m": 5570,
  "\u2581observe": 5571,
  "\u2581Save": 5572,
  "\u2581qu\u00e9t": 5573,
  "\u2581studies": 5574,
  "\u2581west": 5575,
  "\u2581Mong": 5576,
  "\u2581Ryan": 5577,
  "\u2581khoe": 5578,
  "\u2581tears": 5579,
  "\u2581\u00e1t": 5580,
  "\u2581T\u00f2a": 5581,
  "\u2581Andy": 5582,
  "\u2581bridge": 5583,
  "\u2581g\u1ecdn": 5584,
  "\u2581ru\u1ed9ng": 5585,
  "\u2581t\u1edfm": 5586,
  "pa": 5587,
  "\u2581Brazil": 5588,
  "\u2581H\u1ed3ng": 5589,
  "\u2581Ms": 5590,
  "\u2581b\u1ebb": 5591,
  "\u2581ch\u00e9n": 5592,
  "\u2581d\u1ea5y": 5593,
  "\u2581shop": 5594,
  "\u2581Caesar": 5595,
  "\u2581desert": 5596,
  "\u2581t\u00f2": 5597,
  "org": 5598,
  "\u2581s\u00f3i": 5599,
  "\u01b0\u1edbc": 5600,
  "\u2581Gu": 5601,
  "\u2581Pull": 5602,
  "\u2581fourth": 5603,
  "\u2581Phil": 5604,
  "\u2581comfortable": 5605,
  "\u2581h\u00f4i": 5606,
  "\u2581property": 5607,
  "\u2581reign": 5608,
  "\u2581tr\u01a1": 5609,
  "ram": 5610,
  "\u2581Green": 5611,
  "\u2581Ka": 5612,
  "\u2581Second": 5613,
  "\u2581crap": 5614,
  "\u2581m\u1ecfng": 5615,
  "ally": 5616,
  "bye": 5617,
  "\u2581tape": 5618,
  "\u2581block": 5619,
  "\u2581manager": 5620,
  "\u2581treasure": 5621,
  "\u2581Rick": 5622,
  "\u2581capable": 5623,
  "\u2581d\u1eaby": 5624,
  "\u2581Gideon": 5625,
  "\u2581importance": 5626,
  "\u2581r\u00e2": 5627,
  "\u2581selected": 5628,
  "\u2581plenty": 5629,
  "\u2581solve": 5630,
  "\u2581Lo\u1ea1i": 5631,
  "\u2581b\u00f3p": 5632,
  "\u2581skills": 5633,
  "\u2581smile": 5634,
  "\u2581Thou": 5635,
  "\u2581apologize": 5636,
  "\u2581season": 5637,
  "\u2581T\u01b0\u1edfng": 5638,
  "\u2581forest": 5639,
  "\u2581En": 5640,
  "\u2581assigned": 5641,
  "\u2581ch\u1ee3": 5642,
  "\u2581devotion": 5643,
  "RE": 5644,
  "c\u00f4": 5645,
  "\u2581Star": 5646,
  "\u2581bullshit": 5647,
  "\u2581encourage": 5648,
  "\u2581literature": 5649,
  "\u2581package": 5650,
  "\u2581removed": 5651,
  "\u2581Other": 5652,
  "\u2581biggest": 5653,
  "\u2581milk": 5654,
  "\u2581pleased": 5655,
  "\u2581quy\u1ebfn": 5656,
  "\u2581L\u00f9i": 5657,
  "\u2581alright": 5658,
  "\u2581ng\u1eafm": 5659,
  "\u2581Ruth": 5660,
  "\u2581dogs": 5661,
  "\u2581hi\u1ec1n": 5662,
  "\u2581moves": 5663,
  "\u2581souls": 5664,
  "\u2581tabernacle": 5665,
  "\u258118,": 5666,
  "\u2581Doc": 5667,
  "\u2581Sun": 5668,
  "\u2581highly": 5669,
  "\u2581l\u00edp": 5670,
  "\u2581function": 5671,
  "\u2581ngh\u00ecn": 5672,
  "\u2581tr\u01b0\u01a1": 5673,
  "\u2581Los": 5674,
  "\u2581shape": 5675,
  "\u2581\u0110\u00f4": 5676,
  "ver": 5677,
  "\u2581despite": 5678,
  "\u2581ill": 5679,
  "\u2581refused": 5680,
  "\u2581l\u01b0\u1ee3c": 5681,
  "\u2581n\u1eafng": 5682,
  "\u2581\u0110\u1eb9p": 5683,
  "\u2581changing": 5684,
  "\u2581dropped": 5685,
  "\u2581solution": 5686,
  "\u2581unclean": 5687,
  "\u2581S\u00f4": 5688,
  "\u2581laugh": 5689,
  "\u2581persons": 5690,
  "\u2581ro": 5691,
  "There": 5692,
  "g\u00e1i": 5693,
  "\u2581Boy": 5694,
  "\u2581Must": 5695,
  "\u2581bottle": 5696,
  "\u2581Clear": 5697,
  "\u2581audience": 5698,
  "\u2581murdered": 5699,
  "than": 5700,
  "\u2581awake": 5701,
  "\u2581exact": 5702,
  "\u2581kh\u00f3i": 5703,
  "\u2581somehow": 5704,
  "\u2581touched": 5705,
  "\u2581trinh": 5706,
  "\u2581Finch": 5707,
  "\u2581T\u00ednh": 5708,
  "\u2581bloody": 5709,
  "ass": 5710,
  "\u2581commit": 5711,
  "\u2581device": 5712,
  "\u2581Xu\u1ea5t": 5713,
  "\u2581opinion": 5714,
  "\u2581Prince": 5715,
  "\u2581ng\u1ecdc": 5716,
  "\u2581n\u00e0i": 5717,
  "\u2581princes": 5718,
  "day": 5719,
  "\u2581Japan": 5720,
  "\u2581Jean": 5721,
  "\u2581suicide": 5722,
  "Yeah": 5723,
  "th\u1ec3": 5724,
  "\u2581monster": 5725,
  "sen": 5726,
  "\u2581length": 5727,
  "And": 5728,
  "\u2581Things": 5729,
  "\u2581prince": 5730,
  "\u2581dies": 5731,
  "\u2581sand": 5732,
  "\u2581ti\u00eam": 5733,
  "Yes": 5734,
  "\u2581H\u1ec7": 5735,
  "\u2581Times": 5736,
  "\u2581\u0111\u1ea3ng": 5737,
  "ee": 5738,
  "ship": 5739,
  "\u2581Ar": 5740,
  "\u2581S\u1eafp": 5741,
  "\u2581b\u1ecfng": 5742,
  "\u2581potential": 5743,
  "\u2581range": 5744,
  "\u2581Lincoln": 5745,
  "\u2581loose": 5746,
  "\u2581tr\u00f3i": 5747,
  "\u2581witnesses": 5748,
  "\u2581400": 5749,
  "\u2581D\u1ea7u": 5750,
  "\u2581Per": 5751,
  "\u2581b\u1ed1c": 5752,
  "\u2581r\u00e3i": 5753,
  "\u2581tiny": 5754,
  "\u2581m\u00e2": 5755,
  "\u2581ne": 5756,
  "\u2581Qu\u00fd": 5757,
  "\u2581kho\u00e1i": 5758,
  "\u2581ng\u1eadp": 5759,
  "\u2581fired": 5760,
  "ac": 5761,
  "wa": 5762,
  "\u2581Pro": 5763,
  "\u2581r\u1ebb": 5764,
  "\u2581th\u1eaft": 5765,
  "\u2581Ken": 5766,
  "\u2581belongs": 5767,
  "\u2581contrast": 5768,
  "\u2581fallen": 5769,
  "\u2581stronger": 5770,
  "\u2581systems": 5771,
  "\u2581Gordon": 5772,
  "\u2581d\u1edf": 5773,
  "\u2581tr\u1ed9n": 5774,
  "n\u00ean": 5775,
  "\u2581L\u1ed1i": 5776,
  "\u2581TED": 5777,
  "\u2581t\u00e2n": 5778,
  "RANG": 5779,
  "lan": 5780,
  "\u2581H\u1eb9n": 5781,
  "gu": 5782,
  "\u2581Jones": 5783,
  "\u2581breaking": 5784,
  "\u2581multitude": 5785,
  "\u2581principle": 5786,
  "\u2581Paradise": 5787,
  "Ng\u00e0i": 5788,
  "\u2581Tu\u1ea7n": 5789,
  "\u2581Qu\u00ean": 5790,
  "Z": 5791,
  "\u2581Ch\u01b0\u01a1ng": 5792,
  "\u2581nhi\u00ea": 5793,
  "\u2581pal": 5794,
  "\u2581jobs": 5795,
  "\u2581n\u1ea1p": 5796,
  "\u2581Six": 5797,
  "\u2581TCN": 5798,
  "\u2581Talk": 5799,
  "\u2581consequences": 5800,
  "\u2581c\u01b0\u1ee1ng": 5801,
  "\u2581exists": 5802,
  "color": 5803,
  "\u2581\u0110i\u1ec7n": 5804,
  "All": 5805,
  "\u2581encouraged": 5806,
  "\u2581hat": 5807,
  "\u2581reasonable": 5808,
  "\u2581style": 5809,
  "\u2581Congratulations": 5810,
  "\u2581growth": 5811,
  "\u2581h\u00e2n": 5812,
  "ut": 5813,
  "\u2581Santa": 5814,
  "\u2581nh\u1ea1y": 5815,
  "\u2581Imagine": 5816,
  "\u2581emergency": 5817,
  "\u2581gi\u1eadt": 5818,
  "\u2581international": 5819,
  "\u2581wealth": 5820,
  "\u2581Walt": 5821,
  "\u2581parent": 5822,
  "\u2581violent": 5823,
  "\u2581breathe": 5824,
  "\u2581c\u00f4n": 5825,
  "\u2581ho\u00e0i": 5826,
  "\u2581winter": 5827,
  "\u2581Enough": 5828,
  "\u2581mistakes": 5829,
  "\u2581Ph\u00fac": 5830,
  "\u2581c\u1ed1p": 5831,
  "\u2581effective": 5832,
  "\u2581kh\u1edbp": 5833,
  "\u2581Beth": 5834,
  "\u2581chu\u1ed7i": 5835,
  "\u2581speaks": 5836,
  "\u2581strengthen": 5837,
  "\u2581Germany": 5838,
  "\u2581arrangement": 5839,
  "\u2581\u2013": 5840,
  "ious": 5841,
  "\u2581invitation": 5842,
  "\u2581Philistines": 5843,
  "\u2581visited": 5844,
  "\u2581V\u0169": 5845,
  "zi": 5846,
  "\u2581appearance": 5847,
  "\u2581hardly": 5848,
  "\u2581surgery": 5849,
  "\u2581\u0111\u00f2n": 5850,
  "50": 5851,
  "\u25812004.": 5852,
  "\u2581T\u00f9y": 5853,
  "\u2581kh\u00f9ng": 5854,
  "\u2581H\u1ea3i": 5855,
  "\u2581cook": 5856,
  "ren": 5857,
  "\u2581Harold": 5858,
  "\u2581M\u1ea1ng": 5859,
  "\u2581Cat": 5860,
  "ana": 5861,
  "dy": 5862,
  "ng\u00e0y": 5863,
  "\u2581Compare": 5864,
  "\u2581greatly": 5865,
  "\u2581n\u1ee5": 5866,
  "\u2581th\u1ed1i": 5867,
  "\u2581culture": 5868,
  "\u2581m\u1ee5": 5869,
  "\u2581placed": 5870,
  "ring": 5871,
  "\u2581Katie": 5872,
  "\u2581ch\u1ed1t": 5873,
  "\u2581edge": 5874,
  "\u2581perfectly": 5875,
  "\u2581relax": 5876,
  "\u2581th\u00e1o": 5877,
  "\u2581t\u1ea9y": 5878,
  "ban": 5879,
  "\u2581H\u00e0n": 5880,
  "\u2581bullet": 5881,
  "\u2581bu\u00f4ng": 5882,
  "\u2581criminal": 5883,
  "\u2581L\u0169": 5884,
  "\u2581b\u00e1": 5885,
  "\u2581ch\u00e2m": 5886,
  "\u2581missionary": 5887,
  "\u2581Absolutely": 5888,
  "\u2581Sherlock": 5889,
  "\u2581T\u1ec9nh": 5890,
  "\u2581d\u1ea1": 5891,
  "\u2581excited": 5892,
  "\u2581Jonathan": 5893,
  "\u2581causes": 5894,
  "\u2581complicated": 5895,
  "\u2581standard": 5896,
  "\u2581spake": 5897,
  "<": 5898,
  "bar": 5899,
  "\u2581gates": 5900,
  "\u2581b\u00e1t": 5901,
  "\u2581cure": 5902,
  "\u2581otherwise": 5903,
  "\u2581records": 5904,
  "io": 5905,
  "not": 5906,
  "\u2581Emma": 5907,
  "\u2581ao": 5908,
  "ED": 5909,
  "s\u00ea": 5910,
  "\u2581Th\u01b0\u1eddng": 5911,
  "For": 5912,
  "\u2581pack": 5913,
  "\u2581treated": 5914,
  "\u0111\u1ed3": 5915,
  "\u2581Follow": 5916,
  "\u2581ate": 5917,
  "\u2581average": 5918,
  "\u2581failure": 5919,
  "\u2581c\u1eebu": 5920,
  "har": 5921,
  "tor": 5922,
  "\u2581h\u00e1i": 5923,
  "com": 5924,
  "\u00ea": 5925,
  "\u2581150": 5926,
  "\u2581\u0111o\u1ea1t": 5927,
  "\u258142": 5928,
  "\u2581Jackson": 5929,
  "\u2581Truy\u1ec1n": 5930,
  "\u2581ocean": 5931,
  "\u2581r\u00e0o": 5932,
  "\u2581supply": 5933,
  "\u2581worthy": 5934,
  "\u2581x\u01a1": 5935,
  "\u2581Tr\u1edf": 5936,
  "\u2581heading": 5937,
  "\u2581incredible": 5938,
  "\u2581M\u00e1c": 5939,
  "\u2581Tu": 5940,
  "\u2581communication": 5941,
  "\u2581cards": 5942,
  "\u2581remained": 5943,
  "\u2581\u00e1i": 5944,
  "\u2581Ephesians": 5945,
  "\u2581Khung": 5946,
  "\u2581bathroom": 5947,
  "\u2581character": 5948,
  "\u2581faced": 5949,
  "\u2581ki\u1ec7m": 5950,
  "\u2581n\u00e0n": 5951,
  "\u2581ordered": 5952,
  "\u258123:": 5953,
  "\u2581examine": 5954,
  "\u2581Ch\u1ea3": 5955,
  "\u2581Cut": 5956,
  "\u2581Family": 5957,
  "\u2581balance": 5958,
  "\u2581ng\u1eabu": 5959,
  "\u2581released": 5960,
  "\u2581r\u00e8n": 5961,
  "\u2581kitchen": 5962,
  "\u2581\u1ed3n": 5963,
  "M\u1ed9t": 5964,
  "\u2581Ward": 5965,
  "\u2581c\u1ea1n": 5966,
  "\u2581mass": 5967,
  "\u2581M\u01b0\u1eddi": 5968,
  "\u2581Sha": 5969,
  "\u2581Surely": 5970,
  "\u2581dick": 5971,
  "\u2581th\u00e0": 5972,
  "\u2581Jason": 5973,
  "\u2581tent": 5974,
  "\u2581Clearly": 5975,
  "\u2581d\u1ea1n": 5976,
  "\u2581scale": 5977,
  "\u2581\u0110\u1ea1o": 5978,
  "\u2581ph\u00fa": 5979,
  "\u2581tro": 5980,
  "\u2581\u0111\u00e0": 5981,
  "ti\u1ebfng": 5982,
  "\u2581Land": 5983,
  "\u2581Ngo\u1ea1i": 5984,
  "\u2581taxi": 5985,
  "can": 5986,
  "\u2581L\u1edbn": 5987,
  "\u2581nowhere": 5988,
  "\u2581regret": 5989,
  "\u2581tia": 5990,
  "sao": 5991,
  "\u2581Chicago": 5992,
  "\u2581background": 5993,
  "\u2581th\u1ea7m": 5994,
  "\u2581weather": 5995,
  "\u2581possess": 5996,
  "\u2581ram": 5997,
  "\u2581shepherd": 5998,
  "\u2581tuy": 5999,
  "S\u1ef1": 6000,
  "v\u00ec": 6001,
  "\u2581Han": 6002,
  "\u2581Th\u1ee7": 6003,
  "\u2581client": 6004,
  "\u2581nh\u1ecbp": 6005,
  "\u2581Know": 6006,
  "\u2581stress": 6007,
  "\u2581\u0111oan": 6008,
  "ti\u1ec1m": 6009,
  "\u2581T\u00e0i": 6010,
  "\u2581pretend": 6011,
  "Go": 6012,
  "That": 6013,
  "\u2581tool": 6014,
  "oh": 6015,
  "\u2581Yi": 6016,
  "tu": 6017,
  "\u2581headed": 6018,
  "\u2581popular": 6019,
  "\u2581whoever": 6020,
  "\u2581\u0110\u00f3ng": 6021,
  "\u2581British": 6022,
  "\u2581Khu": 6023,
  "\u2581K\u00e9o": 6024,
  "\u2581Sunday": 6025,
  "\u2581network": 6026,
  "\u2581chicken": 6027,
  "\u2581kem": 6028,
  "\u2581suspect": 6029,
  "ris": 6030,
  "\u258138": 6031,
  "\u2581sought": 6032,
  "\u2581unity": 6033,
  "ch\u00fang": 6034,
  "tan": 6035,
  "\u2581Martha": 6036,
  "\u2581demons": 6037,
  "\u2581devil": 6038,
  "\u2581Book": 6039,
  "\u2581Ti\u00ean": 6040,
  "\u2581brethren": 6041,
  "\u2581\u1eeb": 6042,
  "\u2581beer": 6043,
  "\u2581upstairs": 6044,
  "\u2581D\u1ecbch": 6045,
  "\u2581persecution": 6046,
  "\u2581C\u1ea7m": 6047,
  "\u2581Hi\u1ec3": 6048,
  "\u2581authorities": 6049,
  "\u2581hanging": 6050,
  "\u2581labor": 6051,
  "\u2581permission": 6052,
  "\u2581ph\u00e1o": 6053,
  "</": 6054,
  "jo": 6055,
  "\u2581Cu\u1ed1n": 6056,
  "\u2581Except": 6057,
  "\u2581River": 6058,
  "ph": 6059,
  "\u2581Way": 6060,
  "\u2581cay": 6061,
  "\u2581effects": 6062,
  "\u2581ch\u00e1nh": 6063,
  "\u2581ch\u1ee5c": 6064,
  "shi": 6065,
  "\u2581drawn": 6066,
  "\u2581Aye": 6067,
  "\u2581Ja": 6068,
  "\u2581Light": 6069,
  "\u2581stranger": 6070,
  "When": 6071,
  "\u2581Seriously": 6072,
  "\u2581Bad": 6073,
  "\u2581balls": 6074,
  "\u2581campaign": 6075,
  "\u2581obvious": 6076,
  "\u2581photo": 6077,
  "\u2581threw": 6078,
  "m\u00ea": 6079,
  "\u2581delight": 6080,
  "\u2581financial": 6081,
  "\u2581square": 6082,
  "\u2581ruler": 6083,
  "\u2581Drop": 6084,
  "\u2581Yu": 6085,
  "\u2581Far": 6086,
  "\u2581\u0111\u1ed1": 6087,
  "ites": 6088,
  "ji": 6089,
  "xi": 6090,
  "\u2581File": 6091,
  "\u2581capital": 6092,
  "\u2581conclusion": 6093,
  "ier": 6094,
  "\u2581Mai": 6095,
  "\u2581email": 6096,
  "\u2581l\u00e2m": 6097,
  "\u2581media": 6098,
  "\u2581doctors": 6099,
  "\u2581lau": 6100,
  "\u2581nuclear": 6101,
  "\u2581ve": 6102,
  "\u2581Ch\u1ed3ng": 6103,
  "\u2581limited": 6104,
  "\u2581Death": 6105,
  "\u2581l\u1ea1m": 6106,
  "\u2581nh": 6107,
  "ch\u00e1u": 6108,
  "lia": 6109,
  "\u2581Neither": 6110,
  "\u2581Th\u00e1ng": 6111,
  "\u2581excellent": 6112,
  "\u2581imperfect": 6113,
  "\u2581series": 6114,
  "\u2581Miller": 6115,
  "\u2581arrested": 6116,
  "\u2581cloud": 6117,
  "\u2581gi\u1eb7t": 6118,
  "\u2581k\u1eb9o": 6119,
  "\u2581reveal": 6120,
  "\u2581r\u01b0\u1ee1i": 6121,
  "\u2581Gi\u00e1m": 6122,
  "\u2581manifest": 6123,
  "\u2581shared": 6124,
  "\u2581territory": 6125,
  "\u2581\u0111\u00e1y": 6126,
  "gan": 6127,
  "\u2581Goodbye": 6128,
  "\u2581Hong": 6129,
  "\u2581Chuck": 6130,
  "\u2581\u0111\u1ea7n": 6131,
  "\u2581harder": 6132,
  "Who": 6133,
  "\u2581Gary": 6134,
  "\u2581Je": 6135,
  "\u2581Papa": 6136,
  "\u2581l\u1ea7u": 6137,
  "\u2581Elizabeth": 6138,
  "\u2581Step": 6139,
  "\u2581Th\u1ee9c": 6140,
  "\u2581naked": 6141,
  "\u2581san": 6142,
  "#225;": 6143,
  "\u2581Despite": 6144,
  "\u2581pursue": 6145,
  "\u2581ngo\u00e1i": 6146,
  "\u2581Send": 6147,
  "\u2581dressed": 6148,
  "\u2581n\u1ea1": 6149,
  "\u2581opposite": 6150,
  "\u2581Carter": 6151,
  "ph\u1ee5": 6152,
  "\u2581chu\u00f4ng": 6153,
  "\u2581nh\u00e0ng": 6154,
  "\u2581\u0111\u1eaft": 6155,
  "but": 6156,
  "end": 6157,
  "\u2581complex": 6158,
  "10": 6159,
  "\u00e1c": 6160,
  "\u2581merely": 6161,
  "\u2581official": 6162,
  "m\u01b0\u01a1i": 6163,
  "\u2581included": 6164,
  "\u2581ki\u1ec7t": 6165,
  "\u2581qu\u1ea5y": 6166,
  "\u2581C\u00e1": 6167,
  "\u2581connected": 6168,
  "\u2581t\u1ecda": 6169,
  "\u2581al": 6170,
  "\u2581relief": 6171,
  "\u2581s\u01a1n": 6172,
  "\u2581Tomorrow": 6173,
  "\u2581divorce": 6174,
  "\u2581n\u1ea3y": 6175,
  "\u2581Asia": 6176,
  "\u2581breakfast": 6177,
  "\u2581\u0111ai": 6178,
  "Em": 6179,
  "ise": 6180,
  "ius": 6181,
  "tion": 6182,
  "\u2581Bar": 6183,
  "\u2581ph\u1ed5i": 6184,
  "\u2581Dead": 6185,
  "\u2581continues": 6186,
  "\u2581cu\u00f4": 6187,
  "\u2581dumb": 6188,
  "\u258125:": 6189,
  "\u2581D\u1ef1": 6190,
  "\u2581Latin": 6191,
  "\u2581fled": 6192,
  "nt": 6193,
  "\u2581dedication": 6194,
  "\u2581d\u1ed9i": 6195,
  "\u2581facts": 6196,
  "\u2581h\u0103": 6197,
  "s\u00e9p": 6198,
  "\u2581US": 6199,
  "\u2581expressed": 6200,
  "\u2581l\u1eadt": 6201,
  "\u2581l\u1edd": 6202,
  "\u2581rescue": 6203,
  "\u2581L\u01b0u": 6204,
  "\u2581Marcus": 6205,
  "\u2581S\u1ed1ng": 6206,
  "\u2581coast": 6207,
  "\u2581spring": 6208,
  "\u2581Japanese": 6209,
  "\u2581Th\u1ed1ng": 6210,
  "\u2581remembered": 6211,
  "\u2581ridiculous": 6212,
  "\u2581Sounds": 6213,
  "\u2581apparently": 6214,
  "\u2581r\u1ed7ng": 6215,
  "\u2581trusted": 6216,
  "\u258165": 6217,
  "\u2581M\u1eaft": 6218,
  "\u2581actual": 6219,
  "\u2581d\u00e0n": 6220,
  "\u2581exciting": 6221,
  "\u2581hello": 6222,
  "\u2581ph": 6223,
  "\u2581Anyone": 6224,
  "\u2581D\u01b0\u1eddng": 6225,
  "\u2581Nh\u1ea5t": 6226,
  "\u2581chair": 6227,
  "\u2581falling": 6228,
  "\u2581nh\u1ee9t": 6229,
  "\u2581notes": 6230,
  "han": 6231,
  "\u2581Add": 6232,
  "\u2581bu\u00fdt": 6233,
  "\u2581confident": 6234,
  "\u2581patience": 6235,
  "\u2581patients": 6236,
  "\u2581victory": 6237,
  "\u2581Chase": 6238,
  "\u2581Children": 6239,
  "\u2581Ezekiel": 6240,
  "\u2581Wayne": 6241,
  "\u2581c\u1edbm": 6242,
  "\u2581k\u00e8n": 6243,
  "\u2581\u0111\u01b0": 6244,
  "v\u1ea7y": 6245,
  "\u2581creature": 6246,
  "\u2581overcome": 6247,
  "\u2581writer": 6248,
  "\u2581)": 6249,
  "\u2581ch\u1ea5n": 6250,
  "\u2581nh\u1ed1t": 6251,
  "\u2581Majesty": 6252,
  "\u2581c\u1ed7": 6253,
  "\u2581harvest": 6254,
  "\u2581pen": 6255,
  "\u2581T\u1ea1": 6256,
  "\u2581nh\u1ecdc": 6257,
  "nay": 6258,
  "that": 6259,
  "\u2581Start": 6260,
  "\u2581aid": 6261,
  "\u2581checked": 6262,
  "\u2581g\u0169i": 6263,
  "\u2581Peace": 6264,
  "\u2581Ye": 6265,
  "\u2581translation": 6266,
  "\u2581Cisco": 6267,
  "\u2581require": 6268,
  "b\u00f4": 6269,
  "\u2581bright": 6270,
  "\u2581experiences": 6271,
  "\u2581forms": 6272,
  "\u2581\u0111\u1eb3ng": 6273,
  "\u2581\u01b0\u01a1ng": 6274,
  "\u1ee9c": 6275,
  "\u2581\u00c9p": 6276,
  "\u2581ashamed": 6277,
  "\u2581describe": 6278,
  "\u2581eaten": 6279,
  "\u2581occurred": 6280,
  "\u2581split": 6281,
  "\u2581vay": 6282,
  "\u2581babies": 6283,
  "\u2581k\u1ef5": 6284,
  "\u2581l\u1ea5p": 6285,
  "\u2581n\u00e9t": 6286,
  "\u2581twelve": 6287,
  "\u2581\u0110e": 6288,
  "\u2581\u0111\u01a1": 6289,
  "\u2581Answer": 6290,
  "\u2581desk": 6291,
  "\u2581duy\u1ec7t": 6292,
  "\u2581exchange": 6293,
  "\u2581forgiveness": 6294,
  "mu": 6295,
  "\u2581degrees": 6296,
  "\u2581encouragement": 6297,
  "ach": 6298,
  "\u00c0I": 6299,
  "\u2581Thu": 6300,
  "\u2581gang": 6301,
  "\u2581tests": 6302,
  "\u2581\u0110": 6303,
  "\u2581Quy\u1ec1n": 6304,
  "\u2581beliefs": 6305,
  "\u2581C\u00e2m": 6306,
  "\u2581assembly": 6307,
  "\u2581band": 6308,
  "\u2581b\u1ed5n": 6309,
  "\u2581nh\u1ea1o": 6310,
  "\u2581Kong": 6311,
  "\u2581bro": 6312,
  "\u2581Blue": 6313,
  "\u2581Vincent": 6314,
  "\u2581kho\u00e1c": 6315,
  "\u2581wickedness": 6316,
  "00": 6317,
  "\u2581Amanda": 6318,
  "\u2581hunt": 6319,
  "Don": 6320,
  "hai": 6321,
  "\u2581Nguy\u1ec7n": 6322,
  "\u2581daddy": 6323,
  "\u2581shadow": 6324,
  "\u2581Ad": 6325,
  "\u2581application": 6326,
  "\u2581sides": 6327,
  "\u2581watched": 6328,
  "op": 6329,
  "\u2581Ever": 6330,
  "\u2581Mar": 6331,
  "\u2581Ri": 6332,
  "\u2581Similarly": 6333,
  "\u2581ghost": 6334,
  "\u2581movement": 6335,
  "\u2581m\u00f2n": 6336,
  "\u2581Ch\u00e0ng": 6337,
  "\u2581l\u1ed9t": 6338,
  "\u2581\u0110\u1ee9a": 6339,
  "qui": 6340,
  "\u2581bill": 6341,
  "\u2581hall": 6342,
  "\u2581improve": 6343,
  "\u2581remnant": 6344,
  "They": 6345,
  "\u2581Karen": 6346,
  "\u2581Shoot": 6347,
  "\u2581Tyler": 6348,
  "\u2581economic": 6349,
  "\u2581flowers": 6350,
  "\u2581tend": 6351,
  "ping": 6352,
  "san": 6353,
  "\u2581miracle": 6354,
  "\u2581thu\u1ea7n": 6355,
  "\u2581valley": 6356,
  "\u2581\u0111\u1eafp": 6357,
  "\u25812000": 6358,
  "\u2581refuse": 6359,
  "format": 6360,
  "\u258143": 6361,
  "\u2581M\u1ea5t": 6362,
  "\u2581Fucking": 6363,
  "\u2581load": 6364,
  "\u2581Mommy": 6365,
  "\u2581Snow": 6366,
  "\u2581divided": 6367,
  "\u2581tr\u1eadt": 6368,
  "\u2581content": 6369,
  "\u2581k\u00eanh": 6370,
  "\u2581l\u00f3t": 6371,
  "\u2581slaves": 6372,
  "Well": 6373,
  "\u2581Hand": 6374,
  "\u2581Smith": 6375,
  "\u2581minus": 6376,
  "\u2581pair": 6377,
  "fi": 6378,
  "\u2581B\u00e1": 6379,
  "\u2581hi\u1ebfu": 6380,
  "\u2581pool": 6381,
  "\u2581riches": 6382,
  "\u2581tear": 6383,
  "\u2581friendship": 6384,
  "\u2581hurts": 6385,
  "let": 6386,
  "\u2581c\u01b0\u1ee3c": 6387,
  "\u2581c\u1eafm": 6388,
  "\u2581t\u1ef1a": 6389,
  "ju": 6390,
  "\u2581Grand": 6391,
  "\u2581H\u1ee9a": 6392,
  "\u2581Nh\u1eadn": 6393,
  "\u2581Thea": 6394,
  "\u2581n\u1edf": 6395,
  "\u2581scientists": 6396,
  "\u258129.": 6397,
  "\u2581pants": 6398,
  "}": 6399,
  "\u2581attacked": 6400,
  "\u2581h\u1ee1i": 6401,
  "\u2581Phong": 6402,
  "\u2581Va": 6403,
  "\u2581extremely": 6404,
  "\u2581impressed": 6405,
  "\u2581listened": 6406,
  "Ai": 6407,
  "\u2581h\u1ed1": 6408,
  "\u2581succeed": 6409,
  "\u2581Hitler": 6410,
  "\u2581nh\u1eadm": 6411,
  "\u2581relatives": 6412,
  "\u2581tr\u00e0o": 6413,
  "\u2581K\u00eca": 6414,
  "\u2581ph\u00edm": 6415,
  "\u2581v\u00e1ch": 6416,
  "nia": 6417,
  "\u2581brave": 6418,
  "\u2581iniquity": 6419,
  "\u2581khe": 6420,
  "\u2581v\u1ee9t": 6421,
  "rd": 6422,
  "\u2581Bang": 6423,
  "\u2581burden": 6424,
  "\u2581kh\u1eb3ng": 6425,
  "\u2581th\u1ea1ch": 6426,
  "\u25817]": 6427,
  "\u2581Jerry": 6428,
  "\u2581identity": 6429,
  "#236;": 6430,
  "\u2581fields": 6431,
  "\u2581involves": 6432,
  "\u2581rose": 6433,
  "/>": 6434,
  "ong": 6435,
  "\u2581Having": 6436,
  "\u2581praying": 6437,
  "\u2581Q": 6438,
  "\u2581Trang": 6439,
  "\u2581Victoria": 6440,
  "\u2581b\u1ea1ch": 6441,
  "\u2581commandment": 6442,
  "\u2581c\u01a1m": 6443,
  "\u2581abandoned": 6444,
  "\u2581b\u1ed3": 6445,
  "\u2581insane": 6446,
  "\u2581possession": 6447,
  "\u2581troubled": 6448,
  "=": 6449,
  "\u2581Google": 6450,
  "\u2581awful": 6451,
  "\u2581folks": 6452,
  "\u2581khu\u1ea9n": 6453,
  "\u2581passing": 6454,
  "\u2581C\u00e2y": 6455,
  "\u2581dig": 6456,
  "\u2581preached": 6457,
  "\u2581Air": 6458,
  "\u2581Marie": 6459,
  "Be": 6460,
  "\u2581choices": 6461,
  "\u2581introduce": 6462,
  "\u2581toilet": 6463,
  "Trong": 6464,
  "n\u00e0o": 6465,
  "\u2581Brown": 6466,
  "\u2581Mc": 6467,
  "\u2581memories": 6468,
  "\u2581windows": 6469,
  "\u2581\u0111\u00edt": 6470,
  "\u2581Laurel": 6471,
  "\u2581h\u1ec5": 6472,
  "\u2581trap": 6473,
  "\u2581V\u01b0\u1ee3t": 6474,
  "\u2581m\u0103": 6475,
  "\u2581Art": 6476,
  "\u2581limit": 6477,
  "\u2581hired": 6478,
  "\u2581resurrected": 6479,
  "\u2581v\u1ed7": 6480,
  "\u2581T\u1ed9i": 6481,
  "\u2581Ph\u00ea": 6482,
  "\u2581Central": 6483,
  "\u2581hated": 6484,
  "\u2581rung": 6485,
  "\u2581singing": 6486,
  "\u2581struggle": 6487,
  "\u2581tr": 6488,
  "ab": 6489,
  "\u2581Giao": 6490,
  "\u2581soft": 6491,
  "Ma": 6492,
  "\u2581C\u1ef1c": 6493,
  "\u2581Th\u00e2": 6494,
  "\u2581crown": 6495,
  "\u2581escaped": 6496,
  "\u2581lion": 6497,
  "\u2581vote": 6498,
  "\u2581Ph\u00e1t": 6499,
  "\u2581finger": 6500,
  "\u2581knock": 6501,
  "\u2581tr\u00f9m": 6502,
  "\u2581clock": 6503,
  "\u2581depends": 6504,
  "\u2581expensive": 6505,
  "\u2581wars": 6506,
  "#7871;": 6507,
  "ium": 6508,
  "\u258128.": 6509,
  "\u2581Spanish": 6510,
  "\u2581Water": 6511,
  "\u2581emotions": 6512,
  "\u2581guest": 6513,
  "\u2581sinned": 6514,
  "\u2581T\u1eed": 6515,
  "\u2581attempt": 6516,
  "\u2581fingers": 6517,
  "\u2581jealous": 6518,
  "\u2581pleasant": 6519,
  "\u2581\u0110\u01a1n": 6520,
  "\u00e1t": 6521,
  "\u2581abuse": 6522,
  "\u2581b\u1ec3": 6523,
  "\u2581debt": 6524,
  "\u2581fake": 6525,
  "\u2581guards": 6526,
  "idae": 6527,
  "\u2581Police": 6528,
  "\u2581fixed": 6529,
  "\u2581invite": 6530,
  "\u2581schedule": 6531,
  "\u2581weekend": 6532,
  "\u2581kho\u00e1": 6533,
  "\u2581slept": 6534,
  "\u2581thi\u1ec3u": 6535,
  "\u2581\u0111i\u1ec1m": 6536,
  "ino": 6537,
  "\u2581l\u1ecfng": 6538,
  "v\u1eadt": 6539,
  "\u2581allows": 6540,
  "\u2581barely": 6541,
  "\u2581contains": 6542,
  "\u2581impact": 6543,
  "\u2581n\u1ec1": 6544,
  "\u2581Cool": 6545,
  "\u2581drew": 6546,
  "\u2581h\u1eb9p": 6547,
  "\u2581properly": 6548,
  "\u2581v\u1edf": 6549,
  "kin": 6550,
  "\u2581B\u1eadt": 6551,
  "\u2581C\u00e2": 6552,
  "\u2581Jonah": 6553,
  "\u2581Pretty": 6554,
  "\u2581resources": 6555,
  "\u2581wings": 6556,
  "\u2581Castle": 6557,
  "\u2581Zion": 6558,
  "\u2581belief": 6559,
  "\u2581mu\u1ed9i": 6560,
  "\u2581traffic": 6561,
  "\u2581tr\u1eafc": 6562,
  "V\u00ec": 6563,
  "\u2581Ugh": 6564,
  "\u2581generations": 6565,
  "\u2581noted": 6566,
  "\u2581settle": 6567,
  "\u2581d\u1eddi": 6568,
  "\u2581tribes": 6569,
  "\u2581t\u00fang": 6570,
  "\u1eefa": 6571,
  "\u2581Holmes": 6572,
  "\u2581affected": 6573,
  "\u2581declare": 6574,
  "\u2581gh\u00e9p": 6575,
  "\u2581observed": 6576,
  "\u2581pa": 6577,
  "ning": 6578,
  "\u258155": 6579,
  "\u2581b\u00fat": 6580,
  "\u2581document": 6581,
  "\u2581grass": 6582,
  "\u2581ships": 6583,
  "\u2581su\u00fdt": 6584,
  "\u2581increased": 6585,
  "\u2581manage": 6586,
  "\u2581neighbors": 6587,
  "\u2581pizza": 6588,
  "\u2581secrets": 6589,
  "\u2581studied": 6590,
  "\u2581B\u1ebft": 6591,
  "\u2581B\u1ed1n": 6592,
  "\u2581Lisa": 6593,
  "\u2581bond": 6594,
  "\u2581chi\u00eam": 6595,
  "\u2581khoang": 6596,
  "\u2581lung": 6597,
  "\u2581l\u0103n": 6598,
  "law": 6599,
  "\u2581R\u00ea": 6600,
  "\u2581shoulder": 6601,
  "AL": 6602,
  "side": 6603,
  "\u2581Fiona": 6604,
  "\u2581S\u00e1u": 6605,
  "\u2581affection": 6606,
  "\u2581bite": 6607,
  "\u2581c\u1ee5t": 6608,
  "\u2581grain": 6609,
  "\u2581v\u1ea5p": 6610,
  "\u2581Cal": 6611,
  "\u2581ID": 6612,
  "\u2581Pan": 6613,
  "\u2581T\u00f4": 6614,
  "\u2581hill": 6615,
  "\u2581x\u0103ng": 6616,
  "\u2581Bi\u1ec3n": 6617,
  "\u2581Guess": 6618,
  "\u2581News": 6619,
  "\u2581Note": 6620,
  "\u2581Russell": 6621,
  "\u2581bone": 6622,
  "\u2581throat": 6623,
  "over": 6624,
  "tra": 6625,
  "\u2581Ch\u00e2n": 6626,
  "\u2581Stone": 6627,
  "\u2581T\u01b0\u1edbng": 6628,
  "\u2581\u0110\u1ecbnh": 6629,
  "\u2581Christianity": 6630,
  "\u2581Hope": 6631,
  "\u2581professional": 6632,
  "\u2581resist": 6633,
  "\u2581tax": 6634,
  "\u2581AND": 6635,
  "\u2581Linda": 6636,
  "\u2581department": 6637,
  "\u2581officers": 6638,
  "\u2581rejected": 6639,
  "\u2581v\u00e1n": 6640,
  "\u2581Carol": 6641,
  "\u2581Lily": 6642,
  "\u2581Won": 6643,
  "\u2581c\u1eedu": 6644,
  "\u2581react": 6645,
  "\u2581significant": 6646,
  "\u2581challenges": 6647,
  "\u2581goals": 6648,
  "ok": 6649,
  "\u2581National": 6650,
  "\u2581Pre": 6651,
  "\u2581invisible": 6652,
  "\u2581Him": 6653,
  "\u2581Qu\u1ef7": 6654,
  "\u2581giant": 6655,
  "\u2581lifted": 6656,
  "\u2581m\u00e1": 6657,
  "\u2581occur": 6658,
  "\u2581region": 6659,
  "\u2581su\u00ea": 6660,
  "\u2581Free": 6661,
  "\u2581Seven": 6662,
  "\u2581b\u1ec7": 6663,
  "\u2581farm": 6664,
  "ice": 6665,
  "ker": 6666,
  "ud": 6667,
  "\u2581Home": 6668,
  "\u2581Rock": 6669,
  "\u2581Same": 6670,
  "\u2581chest": 6671,
  "\u2581critical": 6672,
  "\u2581disciple": 6673,
  "\u2581helpful": 6674,
  "\u2581illustration": 6675,
  "AR": 6676,
  "head": 6677,
  "\u2581Lieutenant": 6678,
  "\u2581NW": 6679,
  "\u2581mu\u1ed1i": 6680,
  "\u2581nh\u1eb7t": 6681,
  "\u2581thu\u1eabn": 6682,
  "ably": 6683,
  "don": 6684,
  "led": 6685,
  "\u2581DO": 6686,
  "\u2581alcohol": 6687,
  "\u2581pounds": 6688,
  "\u2581r\u1ee1": 6689,
  "\u258141": 6690,
  "\u2581applied": 6691,
  "\u2581h\u01b0u": 6692,
  "\u2581glorious": 6693,
  "\u2581nh\u00e3": 6694,
  "\u2581Nh\u00f3m": 6695,
  "\u2581Walker": 6696,
  "\u2581s\u1eebng": 6697,
  "\u2581agreement": 6698,
  "\u2581armed": 6699,
  "\u2581ch\u00e0": 6700,
  "\u2581pit": 6701,
  "\u258131.": 6702,
  "\u2581Morning": 6703,
  "\u2581Work": 6704,
  "\u2581selfish": 6705,
  "\u2581association": 6706,
  "\u2581curious": 6707,
  "\u2581practices": 6708,
  "\u2581purposes": 6709,
  "\u2581r\u1ec5": 6710,
  "\u258122,": 6711,
  "\u2581Berlin": 6712,
  "\u2581degree": 6713,
  "\u2581discussion": 6714,
  "\u2581April": 6715,
  "\u2581Min": 6716,
  "\u2581closely": 6717,
  "\u2581=": 6718,
  "\u2581Carrie": 6719,
  "\u2581kh\u00f4i": 6720,
  "\u2581status": 6721,
  "\u2581tower": 6722,
  "\u2581\"%": 6723,
  "\u2581Che": 6724,
  "\u2581Jay": 6725,
  "\u2581Molly": 6726,
  "\u2581Th\u1ee5": 6727,
  "\u2581ng\u1ea9n": 6728,
  "\u2581spare": 6729,
  "\u2581Albert": 6730,
  "\u2581m\u1ee1": 6731,
  "\u2581waited": 6732,
  "15": 6733,
  "ub": 6734,
  "\u2581Minh": 6735,
  "\u2581Number": 6736,
  "\u2581neighborhood": 6737,
  "\u2581Sergeant": 6738,
  "\u2581S\u01a1": 6739,
  "\u2581j": 6740,
  "\u2581lu": 6741,
  "\u2581Had": 6742,
  "\u2581c\u1ea3ng": 6743,
  "\u2581kh\u1ea5u": 6744,
  "\u2581widow": 6745,
  "\u2581newspaper": 6746,
  "\u2581Alexander": 6747,
  "\u2581alert": 6748,
  "\u2581d\u1eadt": 6749,
  "\u2581feast": 6750,
  "\u2581fulfill": 6751,
  "\u2581urged": 6752,
  "\u2581Ragnar": 6753,
  "\u2581qui": 6754,
  "\u2581Xu\u1ed1ng": 6755,
  "\u2581b\u1eafp": 6756,
  "\u2581ti\u1ec5n": 6757,
  "\u2581*.": 6758,
  "\u2581Underwood": 6759,
  "\u2581b\u00e1ch": 6760,
  "fa": 6761,
  "\u2581African": 6762,
  "`": 6763,
  "\u2581Left": 6764,
  "\u2581Ron": 6765,
  "\u2581cousin": 6766,
  "\u2581S\u1eed": 6767,
  "\u2581Vi\u1ec7t": 6768,
  "\u2581WHAT": 6769,
  "\u2581begins": 6770,
  "\u2581ch\u1ed5i": 6771,
  "\u2581plain": 6772,
  "\u2581spoil": 6773,
  "\u2581\u0110\u01b0": 6774,
  "t\u1ed9i": 6775,
  "\u2581Micah": 6776,
  "\u2581Relax": 6777,
  "\u2581Sal": 6778,
  "\u2581l\u1ee3n": 6779,
  "\u2581presented": 6780,
  "\u2581slowly": 6781,
  "\u2581\u0111\u00e0y": 6782,
  "\u2581Charlotte": 6783,
  "\u2581b\u00f9ng": 6784,
  "\u2581d\u00e3y": 6785,
  "\u2581expecting": 6786,
  "\u2581shake": 6787,
  "\u258144": 6788,
  "\u2581600": 6789,
  "\u2581nh\u00ec": 6790,
  "\u2581title": 6791,
  "\u2581vessels": 6792,
  "\u2581v\u00e1y": 6793,
  "\u2581\u1ea2": 6794,
  "\u2581D\u00f2ng": 6795,
  "\u2581Grant": 6796,
  "\u2581H\u1ecfi": 6797,
  "\u2581distress": 6798,
  "\u2581ki\u00eang": 6799,
  "\u2581k\u1ec7": 6800,
  "\u2581policy": 6801,
  "\u2581Allen": 6802,
  "\u2581Susan": 6803,
  "\u2581b\u1ecbnh": 6804,
  "\u2581circle": 6805,
  "\u2581July": 6806,
  "\u2581nh\u01a1": 6807,
  "\u2581situations": 6808,
  "ical": 6809,
  "\u2581restaurant": 6810,
  "ped": 6811,
  "\u2581Vi\u00ean": 6812,
  "\u2581detail": 6813,
  "\u2581formed": 6814,
  "\u2581row": 6815,
  "\u2581truths": 6816,
  "\u2581verse": 6817,
  "\u2581\u0111\u1ea1c": 6818,
  "gar": 6819,
  "iv": 6820,
  "pro": 6821,
  "\u2581End": 6822,
  "\u2581Hu": 6823,
  "\u2581Whether": 6824,
  "\u2581armies": 6825,
  "\u2581borders": 6826,
  "\u2581grace": 6827,
  "\u2581t\u00f4ng": 6828,
  "\u2581x\u00ed": 6829,
  "\u2581460)}": 6830,
  "\u2581l\u00e9n": 6831,
  "\u2581survived": 6832,
  "\u2581\u00e1ch": 6833,
  "\u258128:": 6834,
  "\u2581Select": 6835,
  "\u2581acceptable": 6836,
  "\u2581missionaries": 6837,
  "\u2581organized": 6838,
  "\u2581Officer": 6839,
  "\u2581X\u00e1c": 6840,
  "\u2581development": 6841,
  "\u2581kh\u00e1n": 6842,
  "\u2581royal": 6843,
  "\u2581searching": 6844,
  "\u2581\u0111\u00ednh": 6845,
  "\u2581B\u01b0\u1edbc": 6846,
  "\u2581D\u1ec5": 6847,
  "\u2581Ladies": 6848,
  "\u2581Pharisees": 6849,
  "\u2581approval": 6850,
  "\u2581opposition": 6851,
  "\u2581reaction": 6852,
  "\u2581s\u00f9ng": 6853,
  "\u2581\u1ee6": 6854,
  "\u2581granted": 6855,
  "\u2581Cameron": 6856,
  "\u2581ch\u00f3c": 6857,
  "\u2581outta": 6858,
  "\u2581rent": 6859,
  "\u2581Gregor": 6860,
  "\u2581produced": 6861,
  "\u2581punishment": 6862,
  "AN": 6863,
  "th\u1edd": 6864,
  "\u258124,": 6865,
  "\u2581Major": 6866,
  "\u2581Sean": 6867,
  "\u2581advance": 6868,
  "\u2581cultivate": 6869,
  "\u2581investigation": 6870,
  "\u2581li\u1ec5u": 6871,
  "\u2581thief": 6872,
  "bin": 6873,
  "ung": 6874,
  "\u2581Ng\u01b0\u1ee3c": 6875,
  "\u2581beach": 6876,
  "\u2581coat": 6877,
  "\u2581pocket": 6878,
  "\u2581seventh": 6879,
  "\u2581shine": 6880,
  "pos": 6881,
  "\u2581Boss": 6882,
  "\u2581fuel": 6883,
  "\u2581gi\u1ee1n": 6884,
  "So": 6885,
  "Xin": 6886,
  "\u2581H\u1eadu": 6887,
  "\u2581bearing": 6888,
  "\u2581chinh": 6889,
  "\u2581kh\u00fac": 6890,
  "\u2581\u0111\u1eafng": 6891,
  "\u2581\u01b0\u1edbt": 6892,
  "But": 6893,
  "su\u00ea": 6894,
  "\u2581Mor": 6895,
  "\u2581Th": 6896,
  "\u2581contrary": 6897,
  "\u2581g\u1ee5c": 6898,
  "\u2581sudden": 6899,
  "\u2581Wake": 6900,
  "\u2581anti": 6901,
  "\u2581r\u00e2u": 6902,
  "\u2581selling": 6903,
  "\u2581services": 6904,
  "\u2581tuy\u1ec3n": 6905,
  "\u2581v\u00e3i": 6906,
  "\u2581Play": 6907,
  "\u2581Lucas": 6908,
  "\u2581entirely": 6909,
  "\u2581heed": 6910,
  "\u2581ng\u00f3": 6911,
  "\u2581papers": 6912,
  "\u2581rat": 6913,
  "\u2581tie": 6914,
  "ding": 6915,
  "l\u1ea1i": 6916,
  "\u2581Night": 6917,
  "\u2581accomplish": 6918,
  "\u2581d\u01b0\u1ee3c": 6919,
  "\u2581l\u00e2y": 6920,
  "\u2581paint": 6921,
  "ath": 6922,
  "\u2581identify": 6923,
  "\u2581l\u1ec1u": 6924,
  "\u2581solid": 6925,
  "\u2581\u0111\u00e8": 6926,
  "ries": 6927,
  "\u2581June": 6928,
  "\u2581engage": 6929,
  "\u2581humility": 6930,
  "\u2581m\u00f3ng": 6931,
  "\u2581professor": 6932,
  "\u2581runs": 6933,
  "\u2581stolen": 6934,
  "II": 6935,
  "\u2581Chu": 6936,
  "\u2581fed": 6937,
  "\u2581l\u0103": 6938,
  "\u2581sentence": 6939,
  "\u2581s\u00e9t": 6940,
  "\u2581theme": 6941,
  "Man": 6942,
  "lf": 6943,
  "qua": 6944,
  "xin": 6945,
  "\u2581decades": 6946,
  "\u2581motherfucker": 6947,
  "LE": 6948,
  "tes": 6949,
  "\u2581Ch\u00f3": 6950,
  "\u2581arose": 6951,
  "\u2581loan": 6952,
  "\u2581stands": 6953,
  "\u2581thrown": 6954,
  "\u2581\u01a0": 6955,
  "\u2581[\u201c": 6956,
  "\u2581thirty": 6957,
  "\u2581Hit": 6958,
  "\u2581defend": 6959,
  "\u2581inner": 6960,
  "\u2581select": 6961,
  "\u2581stake": 6962,
  "\u2581tr\u01b0\u01a1ng": 6963,
  "\u2581c\u1ed1ng": 6964,
  "\u2581c\u1ee9t": 6965,
  "\u2581hu\u1ec7": 6966,
  "chi\u00ean": 6967,
  "t\u1ed9c": 6968,
  "\u2581B\u1ea3y": 6969,
  "\u2581Sister": 6970,
  "\u2581Tri": 6971,
  "\u2581n\u00e1u": 6972,
  "\u2581remarkable": 6973,
  "\u2581trigger": 6974,
  "To": 6975,
  "\u2581Stephen": 6976,
  "\u2581district": 6977,
  "\u2581includes": 6978,
  "\u2581instructions": 6979,
  "\u2581ki\u00ea": 6980,
  "\u2581remote": 6981,
  "\u2581woods": 6982,
  "\u0111\u01b0\u1ee3c": 6983,
  "\u2581Boston": 6984,
  "\u2581defense": 6985,
  "\u2581obedient": 6986,
  "\u2581Baal": 6987,
  "\u2581H\u00e0": 6988,
  "\u2581Indian": 6989,
  "\u2581ng\u1edb": 6990,
  "\u2581overseer": 6991,
  "\u2581cong": 6992,
  "\u2581eh": 6993,
  "\u2581foundation": 6994,
  "\u2581insight": 6995,
  "\u2581metal": 6996,
  "\u2581represent": 6997,
  "\u2581shirt": 6998,
  "\u2581superior": 6999,
  "ag": 7000,
  "th\u00ec": 7001,
  "\u2581Calm": 7002,
  "\u2581Col": 7003,
  "\u2581Garcia": 7004,
  "\u2581Lucy": 7005,
  "\u2581crash": 7006,
  "\u2581port": 7007,
  "r\u00f4": 7008,
  "\u2581n\u1ed3ng": 7009,
  "\u2581pop": 7010,
  "\u2581sweetheart": 7011,
  "\u2581\u0110i\u1ec3m": 7012,
  "\u2581Copy": 7013,
  "\u2581L\u00e2u": 7014,
  "\u2581larger": 7015,
  "\u2581obedience": 7016,
  "\u2581r\u0103": 7017,
  "mar": 7018,
  "\u258146": 7019,
  "\u2581Americans": 7020,
  "len": 7021,
  "\u2581attending": 7022,
  "\u2581fortune": 7023,
  "\u2581defeat": 7024,
  "house": 7025,
  "\u2581Ch\u1eef": 7026,
  "\u2581ho\u00e3n": 7027,
  "\u2581rare": 7028,
  "Nh\u01b0ng": 7029,
  "tter": 7030,
  "\u2581cake": 7031,
  "\u2581conflict": 7032,
  "\u2581wound": 7033,
  "ons": 7034,
  "\u2581B\u00e1nh": 7035,
  "\u2581extent": 7036,
  "\u2581horrible": 7037,
  "\u2581indicate": 7038,
  "\u2581profile": 7039,
  "\u2581structure": 7040,
  "\u2581t\u1ecfa": 7041,
  "\u2581xu\u00e2n": 7042,
  "\u2581Head": 7043,
  "\u2581poverty": 7044,
  "\u2581Nope": 7045,
  "\u2581dancing": 7046,
  "\u2581l\u1eafp": 7047,
  "\u2581rooms": 7048,
  "\u2581silence": 7049,
  "\u2581s\u1ed1c": 7050,
  "cal": 7051,
  "\u2581Philip": 7052,
  "\u2581Ph\u00ed": 7053,
  "\u2581instruction": 7054,
  "\u2581Evan": 7055,
  "\u2581n\u00f4n": 7056,
  "\u2581r\u1ee7i": 7057,
  "well": 7058,
  "\u2581Ju": 7059,
  "\u2581Pick": 7060,
  "\u2581d\u1ed1c": 7061,
  "\u2581golden": 7062,
  "\u2581heal": 7063,
  "\u2581sharp": 7064,
  "\u2581flee": 7065,
  "\u2581kho\u1ebb": 7066,
  "\u2581website": 7067,
  "9": 7068,
  "Ha": 7069,
  "ph\u00e1p": 7070,
  "\u2581Aw": 7071,
  "V\u00e2ng": 7072,
  "mer": 7073,
  "\u2581@": 7074,
  "\u2581Tha": 7075,
  "\u2581Us": 7076,
  "\u2581ugly": 7077,
  "\u2581whenever": 7078,
  "\u258126.": 7079,
  "\u2581Commander": 7080,
  "\u2581b\u00f9": 7081,
  "\u2581chi\u00ea": 7082,
  "\u2581demon": 7083,
  "\u2581piano": 7084,
  "\u2581xo\u00e1": 7085,
  "\u2581\u00dac": 7086,
  "\u2013": 7087,
  "\u258123]": 7088,
  "\u2581Guy": 7089,
  "\u2581T\u00e0u": 7090,
  "\u2581View": 7091,
  "\u2581X\u00f4": 7092,
  "\u2581ignore": 7093,
  "ch\u1ec9": 7094,
  "\u2581circuit": 7095,
  "\u2581funeral": 7096,
  "\u2581publications": 7097,
  "\u2581tour": 7098,
  "\u2581lessons": 7099,
  "\u2581reputation": 7100,
  "\u2581route": 7101,
  "\u2581T\u1eaft": 7102,
  "\u2581University": 7103,
  "\u2581h\u1ec7t": 7104,
  "\u2581Alan": 7105,
  "\u2581BE": 7106,
  "\u2581Change": 7107,
  "\u2581associated": 7108,
  "\u2581hunting": 7109,
  "\u2581prisoner": 7110,
  "\u2581stock": 7111,
  "\u1ebfm": 7112,
  "\u2581Bond": 7113,
  "\u2581talks": 7114,
  "\u2581v\u1ea1ch": 7115,
  "\u2581Awake": 7116,
  "\u2581Dis": 7117,
  "\u2581GOD": 7118,
  "\u2581Maggie": 7119,
  "\u2581b\u1ebfn": 7120,
  "\u2581ng\u00e0o": 7121,
  "\u2581\u201c[": 7122,
  "C\u00f4": 7123,
  "ative": 7124,
  "\u2581Pi": 7125,
  "\u2581compare": 7126,
  "\u2581consideration": 7127,
  "\u2581c\u00e2m": 7128,
  "\u2581planned": 7129,
  "\u2581vast": 7130,
  "\u00f4": 7131,
  "\u2581C\u0103n": 7132,
  "\u2581airport": 7133,
  "\u2581tools": 7134,
  "\u2581causing": 7135,
  "\u2581khao": 7136,
  "\u2581liar": 7137,
  "wood": 7138,
  "\u2581beside": 7139,
  "\u2581refuge": 7140,
  "\u2581Raymond": 7141,
  "\u2581abundance": 7142,
  "\u2581mouse": 7143,
  "\u2581nurse": 7144,
  "\u2581owner": 7145,
  "\u2581plants": 7146,
  "\u2581\u0111\u1ee9t": 7147,
  "\u2581print": 7148,
  "\u2581shower": 7149,
  "king": 7150,
  "\u2581Ly": 7151,
  "\u2581Thu\u1ed1c": 7152,
  "\u2581st": 7153,
  "\u2581Minister": 7154,
  "\u2581movies": 7155,
  "\u2581repeat": 7156,
  "\u2581shed": 7157,
  "\u2581smoking": 7158,
  "\u2581Angeles": 7159,
  "\u2581Vegas": 7160,
  "\u2581c\u00f5i": 7161,
  "\u2581messages": 7162,
  "\u2581m\u00e0ng": 7163,
  "\u2581prisoners": 7164,
  "\u2581product": 7165,
  "\u0111\u00e3": 7166,
  "\u2581Malcolm": 7167,
  "\u2581th\u00e2m": 7168,
  "\u2581\u0110\u1eb1ng": 7169,
  "\u2581essential": 7170,
  "\u2581extraordinary": 7171,
  "\u2581rulers": 7172,
  "\u2581H\u1ecfa": 7173,
  "\u2581drawing": 7174,
  "\u2581tr\u00e1ng": 7175,
  "\u2581\u0111\u00e0m": 7176,
  "\u2581Patrick": 7177,
  "\u2581Tai": 7178,
  "\u2581endurance": 7179,
  "\u2581painting": 7180,
  "Ba": 7181,
  "Stencil": 7182,
  "du": 7183,
  "net": 7184,
  "\u2581discreet": 7185,
  "\u2581g\u1ea1ch": 7186,
  "\u2581m\u00faa": 7187,
  "\u2581m\u1ef9": 7188,
  "\u2581portion": 7189,
  "\u2581prospect": 7190,
  "\u2581scientific": 7191,
  "\u2581Ethan": 7192,
  "\u2581c\u1ea1o": 7193,
  "\u2581flat": 7194,
  "\u2581recall": 7195,
  "\u2581Columbia": 7196,
  "\u2581T\u1ec7": 7197,
  "\u2581Val": 7198,
  "\u2581Vi\u1ebft": 7199,
  "\u2581chay": 7200,
  "ists": 7201,
  "\u2581Center": 7202,
  "\u2581Hezekiah": 7203,
  "\u2581L\u1ecbch": 7204,
  "\u2581Tra": 7205,
  "\u2581assured": 7206,
  "\u2581d\u01a1": 7207,
  "\u2581l\u01b0\u1ee1ng": 7208,
  "\u2581poison": 7209,
  "\u2581rough": 7210,
  "\u2581salt": 7211,
  "\u2581usual": 7212,
  "\u2581Apparently": 7213,
  "\u2581Memorial": 7214,
  "\u2581Page": 7215,
  "\u2581bucks": 7216,
  "\u2581m\u1ed5": 7217,
  "\u2581th\u1ecd": 7218,
  "\u2581unknown": 7219,
  "\u0110\u1eebng": 7220,
  "\u2581ch\u1ed1n": 7221,
  "\u2581ph\u00e0m": 7222,
  "\u2581prize": 7223,
  "\u2581remaining": 7224,
  "\u2581silent": 7225,
  "\u2581sincere": 7226,
  "\u2581stomach": 7227,
  "\u2581Er": 7228,
  "\u2581M\u00f4n": 7229,
  "\u2581Ngon": 7230,
  "\u2581clothing": 7231,
  "EN": 7232,
  "ot": 7233,
  "rus": 7234,
  "\u2581articles": 7235,
  "\u2581considering": 7236,
  "\u2581description": 7237,
  "\u2581handsome": 7238,
  "\u2581television": 7239,
  "\u2581upright": 7240,
  "\u2581v\u00e1c": 7241,
  "\u2581v\u00fa": 7242,
  "\u258121,": 7243,
  "\u2581Heh": 7244,
  "\u2581Helen": 7245,
  "\u2581Service": 7246,
  "\u2581breathing": 7247,
  "\u2581constantly": 7248,
  "\u2581foolish": 7249,
  "\u2581vain": 7250,
  "ile": 7251,
  "\u258127.": 7252,
  "\u2581eggs": 7253,
  "\u2581focused": 7254,
  "\u2581h\u0103ng": 7255,
  "\u2581nuts": 7256,
  "\u2581tail": 7257,
  "\u2581T\u1ee9c": 7258,
  "\u2581construction": 7259,
  "\u2581ng\u1eaft": 7260,
  "her": 7261,
  "ls": 7262,
  "\u2581ranh": 7263,
  "\u2581testimony": 7264,
  "\u2581troops": 7265,
  "\u2581Faith": 7266,
  "\u2581famine": 7267,
  "\u2581torture": 7268,
  "\u2581disappeared": 7269,
  "#7843;": 7270,
  "\u2581sooner": 7271,
  "\u2581Almighty": 7272,
  "\u2581Ann": 7273,
  "\u2581Super": 7274,
  "\u2581constant": 7275,
  "\u2581unable": 7276,
  "ev": 7277,
  "uh": 7278,
  "\u2581Translation": 7279,
  "\u2581player": 7280,
  "\u2581sorts": 7281,
  "au": 7282,
  "low": 7283,
  "\u2581CO": 7284,
  "\u2581l\u01b0\u1eddng": 7285,
  "\u2581Philippians": 7286,
  "\u2581discussed": 7287,
  "\u2581gi\u1ecdt": 7288,
  "\u2581surrounded": 7289,
  "\u2581Cole": 7290,
  "\u2581C\u1ea5u": 7291,
  "\u2581March": 7292,
  "\u2581click": 7293,
  "\u2581Australia": 7294,
  "\u2581h\u00edt": 7295,
  "\u2581link": 7296,
  "\u2581subjects": 7297,
  "\u2581deeds": 7298,
  "\u2581Fear": 7299,
  "\u2581Lydia": 7300,
  "\u2581strive": 7301,
  "ible": 7302,
  "\u2581Especially": 7303,
  "\u2581Pop": 7304,
  "\u2581Wi": 7305,
  "\u2581fifty": 7306,
  "\u2581severe": 7307,
  "\u2581strangers": 7308,
  "\u2581tip": 7309,
  "\u2581viewed": 7310,
  "lon": 7311,
  "\u2581Speak": 7312,
  "20": 7313,
  "\u2581boring": 7314,
  "\u2581nh\u1ea3m": 7315,
  "\u2581Gentlemen": 7316,
  "\u2581Ian": 7317,
  "\u2581disaster": 7318,
  "\u2581ticket": 7319,
  "\"...": 7320,
  "nan": 7321,
  "\u2581Body": 7322,
  "\u2581Reid": 7323,
  "\u2581carbon": 7324,
  "\u2581convince": 7325,
  "\u2581height": 7326,
  "\u2581interview": 7327,
  "\u2581likewise": 7328,
  "\u2581nights": 7329,
  "\u2581qu\u00e3ng": 7330,
  "\u2581Mal": 7331,
  "\u2581ki\u1ec1m": 7332,
  "\u2581nh\u1ea1t": 7333,
  "\u2581ph\u00e0n": 7334,
  "\u2581Quick": 7335,
  "\u258175": 7336,
  "\u2581communicate": 7337,
  "\u2581goodbye": 7338,
  "\u2581pioneers": 7339,
  "\u2581silly": 7340,
  "\u2581\u0110\u00e1m": 7341,
  "Q": 7342,
  "\u2581Cu": 7343,
  "\u2581Flash": 7344,
  "\u2581Qu\u1ea3n": 7345,
  "\u2581buying": 7346,
  "\u2581h\u01b0\u1edbc": 7347,
  "\u2581user": 7348,
  "\u2581yellow": 7349,
  "\u2581\u0110\u1ecf": 7350,
  "NG": 7351,
  "\u258135.": 7352,
  "\u2581bleeding": 7353,
  "\u2581Afghanistan": 7354,
  "\u2581Real": 7355,
  "\u2581Suy": 7356,
  "\u2581T\u00ea": 7357,
  "\u2581attended": 7358,
  "\u2581bull": 7359,
  "\u2581cubits": 7360,
  "\u2581performed": 7361,
  "\u2581ch\u1eb1m": 7362,
  "\u2581developing": 7363,
  "\u2581ng\u1eedi": 7364,
  "\u2581spirits": 7365,
  "\u2581types": 7366,
  "):": 7367,
  "phi": 7368,
  "sk": 7369,
  "van": 7370,
  "\u2581Kid": 7371,
  "\u2581celebrate": 7372,
  "\u2581disappointed": 7373,
  "\u2581switch": 7374,
  "\u2581\u0111\u1eadm": 7375,
  "\u00d4ng": 7376,
  "\u2581B\u00f4": 7377,
  "\u2581Ku": 7378,
  "\u2581bike": 7379,
  "\u2581shock": 7380,
  "\u1ea7m": 7381,
  "\u2581Need": 7382,
  "\u2581h\u00e2m": 7383,
  "\u2581\u0110\u1ed9ng": 7384,
  "\u2581\u1ebfch": 7385,
  "back": 7386,
  "\u2581$": 7387,
  "\u2581compared": 7388,
  "\u2581software": 7389,
  "\u2581Among": 7390,
  "\u2581B\u00e0n": 7391,
  "\u2581sanctuary": 7392,
  "\u2581spending": 7393,
  "\u2581suck": 7394,
  "\u2581swim": 7395,
  "\u2581symbol": 7396,
  "\u2581warn": 7397,
  "\u2581wipe": 7398,
  "\u2581accomplished": 7399,
  "\u2581demonstrate": 7400,
  "\u2581engaged": 7401,
  "\u2581perish": 7402,
  "ator": 7403,
  "\u2581Almost": 7404,
  "\u2581Ephraim": 7405,
  "\u2581Point": 7406,
  "\u2581Te": 7407,
  "\u2581b\u1ed3n": 7408,
  "\u2581citizens": 7409,
  "\u2581demand": 7410,
  "\u2581method": 7411,
  "\u2581ng\u01b0": 7412,
  "\u2581v\u1eb7t": 7413,
  "clock": 7414,
  "\u2581Army": 7415,
  "\u2581Lot": 7416,
  "\u2581Search": 7417,
  "\u2581cope": 7418,
  "\u2581crack": 7419,
  "\u2581grade": 7420,
  "\u2581recognized": 7421,
  "\u2581traveled": 7422,
  "\u2581factor": 7423,
  "\u2581r\u1ec3": 7424,
  "\u2581th\u1ecf": 7425,
  "\u2581Gi\u01a1": 7426,
  "\u2581Kings": 7427,
  "\u2581cattle": 7428,
  "\u2581signed": 7429,
  "ph\u00e1i": 7430,
  "\u2581$1": 7431,
  "\u2581Believe": 7432,
  "\u2581Florida": 7433,
  "\u2581Hear": 7434,
  "\u2581Teddy": 7435,
  "\u2581guarantee": 7436,
  "\u2581khi\u1ebft": 7437,
  "\u2581politics": 7438,
  "\u2581sweetie": 7439,
  "#7853;": 7440,
  "sta": 7441,
  "\u2581Italy": 7442,
  "\u2581Kh\u1ea3": 7443,
  "\u2581Otherwise": 7444,
  "\u2581Tr\u1eafng": 7445,
  "\u2581Special": 7446,
  "\u2581hosts": 7447,
  "\u2581religions": 7448,
  "\u2581mode": 7449,
  "\u2581primary": 7450,
  "\u2581x\u00e0": 7451,
  "\u2581x\u1ebf": 7452,
  "\u2581T\u00e1c": 7453,
  "\u2581agents": 7454,
  "\u2581context": 7455,
  "\u2581destiny": 7456,
  "\u2581sovereignty": 7457,
  "\u2581Cooper": 7458,
  "\u2581d\u1ed3i": 7459,
  "\u2581lake": 7460,
  "\u2581plague": 7461,
  "ps": 7462,
  "\u258128,": 7463,
  "\u2581C\u00fat": 7464,
  "\u2581Moscow": 7465,
  "\u2581Shaw": 7466,
  "\u2581knees": 7467,
  "\u2581bride": 7468,
  "\u2581referred": 7469,
  "\u2581restore": 7470,
  "iah": 7471,
  "\u2581Moab": 7472,
  "\u2581ch\u00f3t": 7473,
  "\u2581license": 7474,
  "Hey": 7475,
  "down": 7476,
  "\u2581FOR": 7477,
  "\u2581Vi\u1ec7n": 7478,
  "\u2581Ya": 7479,
  "\u2581c\u00fai": 7480,
  "\u2581d\u00f9m": 7481,
  "\u2581revenge": 7482,
  "\u2581tender": 7483,
  "\u258139": 7484,
  "\u2581D\u00ec": 7485,
  "\u2581chu\u1ed9ng": 7486,
  "\u2581holds": 7487,
  "\u2581publishers": 7488,
  "\u2581\u0110\u00ea": 7489,
  "\u2581\u0111\u1ed7": 7490,
  "\u2581Jin": 7491,
  "\u2581Moon": 7492,
  "\u2581departed": 7493,
  "\u2581engine": 7494,
  "\u2581Alpha": 7495,
  "\u2581disappear": 7496,
  "\u2581opportunities": 7497,
  "\u2581zeal": 7498,
  "hoo": 7499,
  "\u2581alarm": 7500,
  "\u2581evolution": 7501,
  "\u2581options": 7502,
  "\u2581toan": 7503,
  "ray": 7504,
  "\u2581hatred": 7505,
  "d\u00e2n": 7506,
  "\u2581Lou": 7507,
  "\u2581contribute": 7508,
  "\u2581creating": 7509,
  "\u2581dating": 7510,
  "\u2581forty": 7511,
  "\u2581thi\u1ebfp": 7512,
  "\u2581translated": 7513,
  "\u2581youths": 7514,
  "\u2581August": 7515,
  "\u2581Friday": 7516,
  "\u2581flow": 7517,
  "\u2581hid": 7518,
  "\u2581lonely": 7519,
  "\u2581review": 7520,
  "\u2581satisfied": 7521,
  "V\u00e0": 7522,
  "\u2581B\u00ed": 7523,
  "\u2581Ke": 7524,
  "\u2581arise": 7525,
  "\u2581drove": 7526,
  "\u2581grief": 7527,
  "\u2581nh\u00ed": 7528,
  "\u2581Clark": 7529,
  "\u2581Half": 7530,
  "\u2581Island": 7531,
  "\u2581dinh": 7532,
  "\u2581h\u1edf": 7533,
  "40": 7534,
  "hm": 7535,
  "ward": 7536,
  "\u2581determine": 7537,
  "\u2581Russia": 7538,
  "\u2581caring": 7539,
  "\u2581comments": 7540,
  "\u2581possibility": 7541,
  "\u2581Pat": 7542,
  "\u2581chi\u00eau": 7543,
  "\u2581elderly": 7544,
  "\u2581collection": 7545,
  "\u2581l\u0103ng": 7546,
  "\u2581nhi": 7547,
  "\u2581pi": 7548,
  "\u2581smaller": 7549,
  "\u2581\u00bb.": 7550,
  "responsibilities": 7551,
  "\u2581IS": 7552,
  "\u2581equipment": 7553,
  "\u2581nh\u1ecb": 7554,
  "\u2581sickness": 7555,
  "\u2581v\u1ea5t": 7556,
  "\u2581Felicity": 7557,
  "\u2581arranged": 7558,
  "\u2581exposed": 7559,
  "\u2581k\u1ec1": 7560,
  "\u2581Jessica": 7561,
  "\u2581Sheriff": 7562,
  "\u2581Tinh": 7563,
  "\u2581X\u00e9t": 7564,
  "\u2581contract": 7565,
  "\u2581pity": 7566,
  "\u2581pointed": 7567,
  "\u2581unusual": 7568,
  "\u2581wave": 7569,
  "hi\u1ebfp": 7570,
  "\u2581Forgive": 7571,
  "\u2581Jon": 7572,
  "\u2581companies": 7573,
  "\u2581replace": 7574,
  "\u2581sets": 7575,
  "\u2581\u0110\u1eddi": 7576,
  "\u2581mo": 7577,
  "\u2581satisfaction": 7578,
  "\u2581\u0111\u1ed9n": 7579,
  "\u2581Robin": 7580,
  "\u2581genius": 7581,
  "\u2581objects": 7582,
  "\u2581peaceful": 7583,
  "\u2581pig": 7584,
  "\u2581yo": 7585,
  "\u2581Eli": 7586,
  "\u2581cruel": 7587,
  "\u2581ordinary": 7588,
  "\u2581Pablo": 7589,
  "\u2581Th\u1ee7y": 7590,
  "\u2581b\u1ef1": 7591,
  "\u2581guests": 7592,
  "\u2581healing": 7593,
  "ology": 7594,
  "\u2581Annie": 7595,
  "\u2581Larry": 7596,
  "\u2581confused": 7597,
  "\u2581khuy\u1ebft": 7598,
  "\u2581log": 7599,
  "\u2581machines": 7600,
  "\u2581receiving": 7601,
  "\u2581sum": 7602,
  "\u2581vu\u00f4ng": 7603,
  "book": 7604,
  "ns": 7605,
  "\u2581Julie": 7606,
  "\u2581b\u00e3": 7607,
  "\u2581establish": 7608,
  "\u2581l\u1ec7ch": 7609,
  "\u2581overseers": 7610,
  "\u2581ph\u01a1": 7611,
  "work": 7612,
  "\u2581Lamb": 7613,
  "\u2581dragon": 7614,
  "\u2581managed": 7615,
  "\u25811919": 7616,
  "\u2581Catherine": 7617,
  "\u2581phun": 7618,
  "\u2581prophecies": 7619,
  "\u2581schools": 7620,
  "\u2581s\u01b0u": 7621,
  "\u2581Web": 7622,
  "\u2581ng\u00f4": 7623,
  "25": 7624,
  "Come": 7625,
  "\u2581incense": 7626,
  "\u2581sugar": 7627,
  "med": 7628,
  "\u2581Cap": 7629,
  "\u2581Eden": 7630,
  "\u2581cream": 7631,
  "\u2581insurance": 7632,
  "\u2581lifetime": 7633,
  "\u2581rau": 7634,
  "\u2581\u0111\u1eafm": 7635,
  "Cha": 7636,
  "\u2581Either": 7637,
  "\u2581firstborn": 7638,
  "\u2581mood": 7639,
  "\u2581stealing": 7640,
  "\u258147": 7641,
  "\u2581Fe": 7642,
  "\u2581H\u1ed3": 7643,
  "\u2581asks": 7644,
  "\u2581deny": 7645,
  "\u2581dwelling": 7646,
  "\u2581laughing": 7647,
  "\u2581n\u00f3c": 7648,
  "\u2581parable": 7649,
  "\u2581screw": 7650,
  "\u2581server": 7651,
  "ON": 7652,
  "mai": 7653,
  "\u2581H\u01a1i": 7654,
  "\u2581Spartacus": 7655,
  "\u2581alien": 7656,
  "\u2581cave": 7657,
  "\u2581civil": 7658,
  "\u2581dawn": 7659,
  "\u2581extreme": 7660,
  "\u2581teaches": 7661,
  "\u2581x\u00e1": 7662,
  "\u2581Greg": 7663,
  "\u2581Security": 7664,
  "\u2581Year": 7665,
  "\u2581adds": 7666,
  "\u2581views": 7667,
  "ft": 7668,
  "\u2581refer": 7669,
  "\u2581r\u1ea3i": 7670,
  "\u2581\u00e2u": 7671,
  "ens": 7672,
  "ngh\u1ecbch": 7673,
  "\u258110]": 7674,
  "\u2581grandmother": 7675,
  "\u2581intelligence": 7676,
  "\u2581Kh\u00f3": 7677,
  "\u2581Reese": 7678,
  "\u2581Ty": 7679,
  "\u2581brilliant": 7680,
  "\u2581frame": 7681,
  "\u2581ghi\u1ebfc": 7682,
  "\u2581soil": 7683,
  "\u2581sc": 7684,
  "ngoan": 7685,
  "\u2581Clay": 7686,
  "\u2581Potter": 7687,
  "\u2581Tr\u01b0\u1edfng": 7688,
  "\u2581grant": 7689,
  "\u2581illness": 7690,
  "\u2581khu\u1ea5t": 7691,
  "\u2581pot": 7692,
  "ified": 7693,
  "\u2581Buddy": 7694,
  "\u2581Gi\u1ecfi": 7695,
  "\u2581S\u1eeda": 7696,
  "\u2581appointment": 7697,
  "\u2581castle": 7698,
  "\u2581clever": 7699,
  "\u2581experiment": 7700,
  "\u2581highest": 7701,
  "\u2581threatened": 7702,
  "\u2581Cam": 7703,
  "\u2581Hill": 7704,
  "\u2581Howard": 7705,
  "\u2581prey": 7706,
  "#7879;": 7707,
  "Re": 7708,
  "set": 7709,
  "ville": 7710,
  "\u2581Felix": 7711,
  "\u2581chip": 7712,
  "\u2581dollar": 7713,
  "\u2581hoan": 7714,
  "\u2581offspring": 7715,
  "\u2581tall": 7716,
  "ities": 7717,
  "\u2581Eat": 7718,
  "\u2581Har": 7719,
  "\u2581Heaven": 7720,
  "\u2581Questions": 7721,
  "\u2581deaf": 7722,
  "\u2581shift": 7723,
  "ors": 7724,
  "\u2581THAT": 7725,
  "\u2581Whoever": 7726,
  "\u2581120": 7727,
  "\u2581Grayson": 7728,
  "\u2581assistance": 7729,
  "\u2581explanation": 7730,
  "\u2581falls": 7731,
  "\u2581secular": 7732,
  "nghi\u1ec7p": 7733,
  "\u2581Italian": 7734,
  "\u2581c\u1ef1u": 7735,
  "\u2581flower": 7736,
  "\u2581grandfather": 7737,
  "\u2581listed": 7738,
  "\u2581ng\u1ed9": 7739,
  "\u2581outstanding": 7740,
  "\u2581xui": 7741,
  "oc": 7742,
  "port": 7743,
  "\u2581Dragon": 7744,
  "\u2581b\u1ea5m": 7745,
  "\u2581inch": 7746,
  "bi\u1ebft": 7747,
  "car": 7748,
  "mail": 7749,
  "\u2581Parker": 7750,
  "\u2581ch\u00f4": 7751,
  "\u2581indicates": 7752,
  "\u2581mystery": 7753,
  "\u2581shield": 7754,
  "\u2581wondered": 7755,
  "\u2581besides": 7756,
  "\u2581lest": 7757,
  "\u2581Tam": 7758,
  "\u2581collect": 7759,
  "\u2581corrupt": 7760,
  "\u2581describes": 7761,
  "\u2581freely": 7762,
  "q": 7763,
  "\u0111anh": 7764,
  "\u2581Nhi\u1ec7m": 7765,
  "\u2581endeavor": 7766,
  "\u2581entertainment": 7767,
  "\u2581mount": 7768,
  "\u2581tied": 7769,
  "\u2581whore": 7770,
  "\u2581\u00eam": 7771,
  "hand": 7772,
  "je": 7773,
  "\u2581Looking": 7774,
  "\u2581covering": 7775,
  "\u2581husbands": 7776,
  "\u2581nghi\u00eang": 7777,
  "\u2581therein": 7778,
  "80": 7779,
  "ball": 7780,
  "\u2581Draw": 7781,
  "\u2581Teach": 7782,
  "\u2581banh": 7783,
  "\u2581l\u1ec1": 7784,
  "\u2581spell": 7785,
  "\u2581vacation": 7786,
  "sky": 7787,
  "\u2581Best": 7788,
  "\u2581Fitz": 7789,
  "\u2581H\u00f2a": 7790,
  "\u2581Lance": 7791,
  "\u2581Mum": 7792,
  "\u2581S\u1edf": 7793,
  "\u2581kills": 7794,
  "\u2581routine": 7795,
  "\u2581\u1ea5u": 7796,
  "fer": 7797,
  "\u2581facing": 7798,
  "\u2581jerk": 7799,
  "\u2581romantic": 7800,
  "\u2581H\u1ee3p": 7801,
  "\u2581princess": 7802,
  "\u2581scare": 7803,
  "\u2581thick": 7804,
  "\u2581bare": 7805,
  "\u2581chain": 7806,
  "\u2581joyful": 7807,
  "\u2581rush": 7808,
  "\u2581\u0111\u00f4n": 7809,
  "b\u00ean": 7810,
  "\u2581chu\u1ed3ng": 7811,
  "\u2581c\u1ee5m": 7812,
  "\u2581default": 7813,
  "\u2581illegal": 7814,
  "\u2581poured": 7815,
  "\u2581su\u1ed1i": 7816,
  "ions": 7817,
  "\u2581Ana": 7818,
  "\u2581Text": 7819,
  "\u2581gathering": 7820,
  "\u2581th\u1eb9n": 7821,
  "B\u1ea1n": 7822,
  "\u2581Kelly": 7823,
  "\u2581anxious": 7824,
  "\u2581n\u1ed1t": 7825,
  "\u2581painful": 7826,
  "\u2581ruined": 7827,
  "\u2581united": 7828,
  "\u2581Ch": 7829,
  "\u2581Coulson": 7830,
  "\u2581Y\u00ean": 7831,
  "\u2581charges": 7832,
  "\u2581contain": 7833,
  "\u2581c\u1ed1i": 7834,
  "\u2581l\u00e1ng": 7835,
  "\u2581prime": 7836,
  "\u2581protected": 7837,
  "\u2581th\u1eafn": 7838,
  "\u2581Nh\u1ea3y": 7839,
  "\u2581cutting": 7840,
  "\u2581d\u00e1n": 7841,
  "\u2581hates": 7842,
  "\u2581t\u00e9": 7843,
  "\u2581weakness": 7844,
  "\\": 7845,
  "\u2581Exodus": 7846,
  "\u2581GPS": 7847,
  "\u2581History": 7848,
  "\u2581elements": 7849,
  "\u2581moments": 7850,
  "\u2581reference": 7851,
  "\u2581t\u01b0\u01a1": 7852,
  "\u2581assist": 7853,
  "\u2581restored": 7854,
  "\u2581temptation": 7855,
  "0": 7856,
  "\u2581Debbie": 7857,
  "\u2581Jamie": 7858,
  "\u2581cap": 7859,
  "\u2581gi\u1ebfng": 7860,
  "\u2581g\u0103": 7861,
  "\u2581s\u00f4i": 7862,
  "\u2581wheel": 7863,
  "fe": 7864,
  "istic": 7865,
  "ura": 7866,
  "\u2581Fred": 7867,
  "\u2581encouraging": 7868,
  "\u2581executed": 7869,
  "\u2581m\u1ebb": 7870,
  "OR": 7871,
  "V\u1eady": 7872,
  "\u258133.": 7873,
  "\u2581Heights": 7874,
  "\u2581badly": 7875,
  "\u2581fifth": 7876,
  "\u2581gi\u00ea": 7877,
  "\u2581l\u01b0": 7878,
  "\u2581slip": 7879,
  "\u2581Phu": 7880,
  "\u2581b\u00e1ng": 7881,
  "\u2581chat": 7882,
  "\u2581x\u00f4": 7883,
  "\u2581\u00d0": 7884,
  "are": 7885,
  "ep": 7886,
  "\u2581Fa": 7887,
  "\u2581T\u1eebng": 7888,
  "\u2581th\u1ec9u": 7889,
  "hi\u1ec3n": 7890,
  "\u2581Seth": 7891,
  "\u2581beating": 7892,
  "\u2581c\u00fang": 7893,
  "\u2581mirror": 7894,
  "\u2581m\u1edb": 7895,
  "\u2581reject": 7896,
  "ella": 7897,
  "ug": 7898,
  "\u2581B\u00f3ng": 7899,
  "\u2581Tonight": 7900,
  "\u2581X\u00ea": 7901,
  "\u2581flag": 7902,
  "\u2581transfer": 7903,
  "\u2581Anybody": 7904,
  "\u2581Coming": 7905,
  "\u2581Par": 7906,
  "\u2581Pe": 7907,
  "\u2581cameras": 7908,
  "\u2581chui": 7909,
  "\u2581colour": 7910,
  "\u2581crisis": 7911,
  "\u2581render": 7912,
  "right": 7913,
  "\u2581KINH": 7914,
  "\u2581Lewis": 7915,
  "\u2581factory": 7916,
  "\u2581freak": 7917,
  "\u2581generous": 7918,
  "\u2581\u0111\u1ed7i": 7919,
  "\u2581Angela": 7920,
  "\u2581Khan": 7921,
  "\u2581Lo\u00e0i": 7922,
  "\u2581gentleman": 7923,
  "\u2581mask": 7924,
  "\u2581mature": 7925,
  "\u2581r\u1ef1c": 7926,
  "\u2581\u0111\u1eady": 7927,
  "\u0110\u00f3": 7928,
  "\u2581Francisco": 7929,
  "\u2581atmosphere": 7930,
  "\u2581downstairs": 7931,
  "\u2581ease": 7932,
  "\u2581factors": 7933,
  "\u2581g\u00e0i": 7934,
  "\u2581tr\u0169ng": 7935,
  "\u2581vehicle": 7936,
  "cHFF": 7937,
  "\u2581Game": 7938,
  "\u2581Gotham": 7939,
  "\u2581Mia": 7940,
  "\u2581arrive": 7941,
  "\u2581evident": 7942,
  "\u2581identified": 7943,
  "\u2581majority": 7944,
  "\u2581pagan": 7945,
  "\u2581\u1eaft": 7946,
  "As": 7947,
  "\u258172": 7948,
  "\u2581Foreman": 7949,
  "\u2581Shi": 7950,
  "\u2581Th\u00fa": 7951,
  "\u2581pour": 7952,
  "\u2581refers": 7953,
  "c\u1ee7a": 7954,
  "what": 7955,
  "\u2581B\u1ed3": 7956,
  "\u2581anxiety": 7957,
  "\u2581immorality": 7958,
  "\u2581incident": 7959,
  "trong": 7960,
  "\u2581Furthermore": 7961,
  "\u2581Julia": 7962,
  "\u2581T\u00e2m": 7963,
  "Where": 7964,
  "lam": 7965,
  "\u2581Count": 7966,
  "\u2581H\u00f4n": 7967,
  "\u2581nhu\u1eadn": 7968,
  "\u2581witch": 7969,
  "lar": 7970,
  "\u2581Galatians": 7971,
  "\u2581Testament": 7972,
  "\u2581b\u00e2": 7973,
  "\u2581oxygen": 7974,
  "\u2581DPI": 7975,
  "\u2581Kirk": 7976,
  "\u2581brief": 7977,
  "\u2581cab": 7978,
  "huy\u1ebfn": 7979,
  "\u2581Harvey": 7980,
  "\u2581Manasseh": 7981,
  "\u2581inherit": 7982,
  "\u2581kh\u01a1i": 7983,
  "\u2581relationships": 7984,
  "\u2581resolve": 7985,
  "\u2581wherever": 7986,
  "\u2581\u00c1o": 7987,
  "ata": 7988,
  "great": 7989,
  "\u2581artist": 7990,
  "\u2581songs": 7991,
  "\u2581s\u1edd": 7992,
  "\u2581v\u01b0\u1ee3ng": 7993,
  "tr\u0103m": 7994,
  "\u2581Jan": 7995,
  "\u2581beneath": 7996,
  "\u2581bore": 7997,
  "\u2581displayed": 7998,
  "\u2581healed": 7999,
  "\u2581passion": 8000,
  "\u2581x\u00edu": 8001,
  "\u258118]": 8002,
  "\u2581Ecclesiastes": 8003,
  "\u2581Lawrence": 8004,
  "\u2581ch\u00e9m": 8005,
  "\u2581entrance": 8006,
  "\u2581kindly": 8007,
  "\u2581scan": 8008,
  "\u2581worshipers": 8009,
  "gg": 8010,
  "with": 8011,
  "\u2581Cuddy": 8012,
  "\u2581Joy": 8013,
  "\u2581Ser": 8014,
  "\u2581argument": 8015,
  "\u2581giang": 8016,
  "\u2581l\u1ed3ng": 8017,
  "\u2581previous": 8018,
  "\u2581r\u1ea3nh": 8019,
  "\u2581visual": 8020,
  "\u2581\u0110au": 8021,
  "Look": 8022,
  "use": 8023,
  "\u258152": 8024,
  "\u2581corn": 8025,
  "\u2581liver": 8026,
  "\u2581mis": 8027,
  "\u2581mostly": 8028,
  "\u2581nh\u1ed5": 8029,
  "\u2581riding": 8030,
  "\u2581si\u00eang": 8031,
  "\u2581w": 8032,
  "\u2581Colossians": 8033,
  "\u2581Department": 8034,
  "\u2581Ham": 8035,
  "\u2581Scotland": 8036,
  "\u2581currently": 8037,
  "\u2581photos": 8038,
  "ect": 8039,
  "\u2581deeper": 8040,
  "\u2581enabled": 8041,
  "\u2581mid": 8042,
  "\u2581th\u1ee5c": 8043,
  "\u2581tradition": 8044,
  "eg": 8045,
  "ization": 8046,
  "\u2581Top": 8047,
  "\u2581completed": 8048,
  "\u2581r\u1edbt": 8049,
  "\u2581sexy": 8050,
  "rin": 8051,
  "\u2581HE": 8052,
  "\u2581Nina": 8053,
  "\u2581Taylor": 8054,
  "\u2581drinks": 8055,
  "\u2581l\u0169ng": 8056,
  "\u2581protecting": 8057,
  "\u2581sinful": 8058,
  "m\u00f4": 8059,
  "\u2581Perfect": 8060,
  "\u2581Syria": 8061,
  "\u2581V\u00e2": 8062,
  "\u2581governments": 8063,
  "\u2581responded": 8064,
  "\u2581Deuteronomy": 8065,
  "\u2581Western": 8066,
  "\u2581corruption": 8067,
  "\u2581c\u1ee1i": 8068,
  "\u2581detective": 8069,
  "\u2581l\u1eafc": 8070,
  "\u2581Gentiles": 8071,
  "\u2581September": 8072,
  "\u2581Tri\u1ec1u": 8073,
  "\u2581comment": 8074,
  "\u2581library": 8075,
  "\u2581palace": 8076,
  "\u25cf": 8077,
  "uff": 8078,
  "\u2581Thought": 8079,
  "\u2581fantastic": 8080,
  "\u2581ng\u1ed9t": 8081,
  "\u2581n\u1ebfm": 8082,
  "\u2581pan": 8083,
  "\u2581x\u01b0\u1edfng": 8084,
  "\u2581Xo\u00e1": 8085,
  "\u2581ch\u1edbp": 8086,
  "\u2581n\u00e9n": 8087,
  "\u2581woke": 8088,
  "\u2581\u0111i\u1ec1n": 8089,
  "\u2581Dick": 8090,
  "\u2581Lester": 8091,
  "\u2581cheese": 8092,
  "\u2581copies": 8093,
  "\u2581l\u00edu": 8094,
  "\u2581plate": 8095,
  "\u2581preserve": 8096,
  "\u2581slain": 8097,
  "\u2581Court": 8098,
  "\u2581D\u1eady": 8099,
  "\u2581Einstein": 8100,
  "\u2581Explain": 8101,
  "\u2581Jersey": 8102,
  "\u2581friendly": 8103,
  "\u2581oath": 8104,
  "\u2581t\u00edm": 8105,
  "b\u00e1t": 8106,
  "ek": 8107,
  "gue": 8108,
  "\u2581Stan": 8109,
  "\u2581additional": 8110,
  "\u2581cease": 8111,
  "\u2581fashion": 8112,
  "\u2581judges": 8113,
  "\u2581lovers": 8114,
  "\u2581Za": 8115,
  "\u2581climate": 8116,
  "\u2581conference": 8117,
  "\u2581scary": 8118,
  "CH": 8119,
  "ph\u1ea3i": 8120,
  "\u2581Jeff": 8121,
  "\u2581Middle": 8122,
  "\u2581Off": 8123,
  "\u2581Th\u00edch": 8124,
  "\u2581T\u00f4n": 8125,
  "\u2581belt": 8126,
  "\u2581t\u1ea3n": 8127,
  "\u2581x\u00e0i": 8128,
  "\u2581Haven": 8129,
  "\u2581Truth": 8130,
  "\u2581captivity": 8131,
  "\u2581dignity": 8132,
  "\u2581director": 8133,
  "\u2581outcome": 8134,
  "\u2581sp": 8135,
  "\u2581Brody": 8136,
  "\u2581TH\u00c1NH": 8137,
  "\u2581abandon": 8138,
  "\u2581impression": 8139,
  "\u2581marvelous": 8140,
  "\u2581m\u00e2u": 8141,
  "\u2581nh\u01b0\u1ee3ng": 8142,
  "\u2581th\u1ed1n": 8143,
  "ig": 8144,
  "\u2581Obviously": 8145,
  "\u2581mile": 8146,
  "\u2581offense": 8147,
  "mb": 8148,
  "this": 8149,
  "\u2581'%": 8150,
  "\u2581Chile": 8151,
  "\u2581Th\u1ecb": 8152,
  "\u2581betrayed": 8153,
  "\u2581childhood": 8154,
  "\u2581goats": 8155,
  "\u2581shortly": 8156,
  "cent": 8157,
  "ku": 8158,
  "\u2581M\u1eebng": 8159,
  "\u2581clouds": 8160,
  "\u2581motion": 8161,
  "\u2581Fox": 8162,
  "\u2581Hard": 8163,
  "\u2581adult": 8164,
  "\u2581blew": 8165,
  "\u2581buildings": 8166,
  "\u2581hire": 8167,
  "\u2581involve": 8168,
  "\u2581lately": 8169,
  "\u2581sandwich": 8170,
  "\u2581visiting": 8171,
  "\u2581G\u1eedi": 8172,
  "\u2581Kh\u00e1c": 8173,
  "\u2581broad": 8174,
  "\u2581competition": 8175,
  "\u2581desperate": 8176,
  "\u2581th\u00ednh": 8177,
  "\u2581upper": 8178,
  "\u258151": 8179,
  "\u2581Davis": 8180,
  "\u2581Governing": 8181,
  "\u2581Honor": 8182,
  "\u2581Kara": 8183,
  "\u2581Th\u1ed5": 8184,
  "\u2581abilities": 8185,
  "\u2581believes": 8186,
  "\u2581mixed": 8187,
  "\u2581picking": 8188,
  "\u2581Ge": 8189,
  "\u2581Might": 8190,
  "\u2581Nations": 8191,
  "\u2581acted": 8192,
  "\u2581attacks": 8193,
  "\u2581h\u1ecdng": 8194,
  "\u2581industry": 8195,
  "\u2581largest": 8196,
  "\u2581l\u0169y": 8197,
  "\u2581odd": 8198,
  "\u2581tested": 8199,
  "\u2581\u0111\u00fac": 8200,
  "1000}": 8201,
  "ros": 8202,
  "\u25811,000": 8203,
  "\u2581Kh\u00e1ch": 8204,
  "\u2581October": 8205,
  "\u2581concerns": 8206,
  "\u2581murderer": 8207,
  "\u25810.": 8208,
  "\u2581Tak": 8209,
  "\u2581l\u00e9o": 8210,
  "\u2581ngai": 8211,
  "\u2581x\u1ed9n": 8212,
  "phe": 8213,
  "\u25811000": 8214,
  "\u2581C\u00fa": 8215,
  "\u2581S\u00fang": 8216,
  "\u2581honestly": 8217,
  "\u2581nh\u00e3n": 8218,
  "\u2581Iron": 8219,
  "\u2581Manny": 8220,
  "\u2581Ve": 8221,
  "\u2581companions": 8222,
  "\u2581c\u01b0\u1ee1i": 8223,
  "\u2581d\u1eadp": 8224,
  "\u2581units": 8225,
  "sai": 8226,
  "\u2581Ahh": 8227,
  "\u2581Ali": 8228,
  "\u2581Gen": 8229,
  "\u2581aspects": 8230,
  "\u2581dealt": 8231,
  "\u2581divide": 8232,
  "\u2581hook": 8233,
  "\u2581hoped": 8234,
  "\u2581union": 8235,
  "\u2581Chia": 8236,
  "\u2581M\u00f3n": 8237,
  "\u2581THIS": 8238,
  "\u2581bedroom": 8239,
  "\u2581screwed": 8240,
  "\u2581appeal": 8241,
  "\u2581b\u01b0": 8242,
  "\u2581earn": 8243,
  "\u2581gi\u00f9m": 8244,
  "\u2581relative": 8245,
  "\u2581telephone": 8246,
  "ez": 8247,
  "\u25811990": 8248,
  "\u2581models": 8249,
  "\u2581nearby": 8250,
  "\u2581pulling": 8251,
  "\u2581reigned": 8252,
  "\u2581supported": 8253,
  "\u2581trapped": 8254,
  "\u2581x\u00ec": 8255,
  "\u2581throwing": 8256,
  "+": 8257,
  "Sao": 8258,
  "nu": 8259,
  "\u2581Control": 8260,
  "\u2581fishing": 8261,
  "N\u00f3": 8262,
  "ara": 8263,
  "c\u1ee9u": 8264,
  "\u2581Ch\u0103": 8265,
  "\u2581Enjoy": 8266,
  "\u2581Hiro": 8267,
  "\u2581ch\u1ea9n": 8268,
  "\u2581doin": 8269,
  "\u2581h\u00e3nh": 8270,
  "\u2581narrow": 8271,
  "\u2581WE": 8272,
  "\u2581dozen": 8273,
  "\u2581l\u1eadn": 8274,
  "\u2581survival": 8275,
  "quanh": 8276,
  "will": 8277,
  "\u2581Korea": 8278,
  "\u2581Report": 8279,
  "\u2581Window": 8280,
  "\u2581concept": 8281,
  "\u2581d\u1ed3n": 8282,
  "\u2581reaching": 8283,
  "\u2581reminded": 8284,
  "T\u1ea1i": 8285,
  "cu": 8286,
  "\u2581Drink": 8287,
  "\u2581Walk": 8288,
  "\u2581blog": 8289,
  "\u2581brains": 8290,
  "\u2581climb": 8291,
  "\u2581enjoying": 8292,
  "\u2581supplies": 8293,
  "\u2581vi\u00eam": 8294,
  "u\u1ebf": 8295,
  "\u2581Careful": 8296,
  "\u2581Enter": 8297,
  "\u2581N\u00fai": 8298,
  "\u2581Wyatt": 8299,
  "\u2581expressions": 8300,
  "\u2581goin": 8301,
  "\u2581math": 8302,
  "\u2581returning": 8303,
  "\u2581trail": 8304,
  "\u2581trash": 8305,
  "\u2581useless": 8306,
  "cing": 8307,
  "field": 8308,
  "\u2581Bro": 8309,
  "\u2581Heart": 8310,
  "\u2581Joel": 8311,
  "\u2581ME": 8312,
  "\u2581affairs": 8313,
  "\u2581quarter": 8314,
  "LY": 8315,
  "Now": 8316,
  "\u00fd": 8317,
  "\u25812002": 8318,
  "\u2581Cass": 8319,
  "\u2581Chi\u00ean": 8320,
  "\u2581C\u01b0ng": 8321,
  "\u2581cock": 8322,
  "\u2581reproach": 8323,
  "ide": 8324,
  "ther": 8325,
  "\u2581Brad": 8326,
  "\u2581Grab": 8327,
  "\u2581Johnson": 8328,
  "\u2581Josh": 8329,
  "\u2581chua": 8330,
  "\u2581promote": 8331,
  "\u2581shelter": 8332,
  "\u2581shots": 8333,
  "box": 8334,
  "s\u1ebd": 8335,
  "\u2581Oz": 8336,
  "\u2581Ph": 8337,
  "\u2581bitter": 8338,
  "\u2581brand": 8339,
  "\u2581terror": 8340,
  "\u2581Biblical": 8341,
  "\u2581assistant": 8342,
  "\u2581bury": 8343,
  "\u2581launch": 8344,
  "\u2581profit": 8345,
  "\u2581random": 8346,
  "\u2581wounded": 8347,
  "\u2581\u0111\u1ebd": 8348,
  "#7889;": 8349,
  "ap": 8350,
  "\u2581URL": 8351,
  "\u2581c\u0103m": 8352,
  "\u2581imagination": 8353,
  "\u2581installed": 8354,
  "\u2581nh\u00e9t": 8355,
  "ette": 8356,
  "\u2581Facebook": 8357,
  "\u2581Gold": 8358,
  "\u2581Saturday": 8359,
  "\u2581assure": 8360,
  "\u2581custom": 8361,
  "#7841;": 8362,
  "b\u00ea": 8363,
  "\u2581AIDS": 8364,
  "\u2581Ain": 8365,
  "\u2581Emperor": 8366,
  "\u2581Mind": 8367,
  "\u2581Ocean": 8368,
  "\u2581Spain": 8369,
  "\u2581begun": 8370,
  "\u2581computers": 8371,
  "\u2581nghi\u1ec7t": 8372,
  "\u2581r\u1ec9": 8373,
  "new": 8374,
  "tus": 8375,
  "\u2581b\u00eanh": 8376,
  "\u2581central": 8377,
  "\u2581directed": 8378,
  "om": 8379,
  "\u258123,": 8380,
  "\u2581H\u01b0\u1edbng": 8381,
  "\u2581bath": 8382,
  "\u2581branches": 8383,
  "\u2581dump": 8384,
  "\u2581inter": 8385,
  "\u2581publication": 8386,
  "-1": 8387,
  "\u2581Del": 8388,
  "\u2581Kai": 8389,
  "\u2581miracles": 8390,
  "\u2581physically": 8391,
  "\u2581separated": 8392,
  "\u2581wire": 8393,
  "ging": 8394,
  "lt": 8395,
  "\u2581Dennis": 8396,
  "\u2581lasting": 8397,
  "\u2581ministers": 8398,
  "\u2581n\u1ee9t": 8399,
  "\u2581settled": 8400,
  "\u2581sinners": 8401,
  "\u2581x\u0103m": 8402,
  "gian": 8403,
  "\u2581Palmer": 8404,
  "\u2581S\u1ee3": 8405,
  "\u2581humanity": 8406,
  "\u2581obtain": 8407,
  "\u2581\u00c1nh": 8408,
  "\u2581\u0111\u0103": 8409,
  "\u2581conclude": 8410,
  "\u2581sensitive": 8411,
  "s\u1ee9": 8412,
  "zz": 8413,
  "\u2581Remove": 8414,
  "\u2581immoral": 8415,
  "\u2581intend": 8416,
  "\u2581piss": 8417,
  "\u2581rebellion": 8418,
  "\u2581tr\u00e1n": 8419,
  "l\u1eddi": 8420,
  "\u2581Al\u00f4": 8421,
  "\u2581Anne": 8422,
  "\u2581Bravo": 8423,
  "\u2581Gospel": 8424,
  "\u2581Nghi\u00eam": 8425,
  "\u2581Samaria": 8426,
  "\u2581bye": 8427,
  "\u2581commercial": 8428,
  "\u2581confirmed": 8429,
  "\u2581frog": 8430,
  "\u2581nh\u00e1": 8431,
  "\u2581x\u00e1ch": 8432,
  "\u2581confirm": 8433,
  "\u2581deserves": 8434,
  "\u2581methods": 8435,
  "\u2581perspective": 8436,
  "0,000": 8437,
  "\u2581Karl": 8438,
  "\u2581Rob": 8439,
  "\u2581V\u00e0ng": 8440,
  "\u2581deck": 8441,
  "\u2581filter": 8442,
  "\u2581guilt": 8443,
  "\u2581habit": 8444,
  "\u2581password": 8445,
  "\u2581s\u01b0\u1eddn": 8446,
  "\u2581CA": 8447,
  "\u2581discover": 8448,
  "\u2581fundamental": 8449,
  "\u2581m\u00e3nh": 8450,
[...]
